{
  "version": "1.0",
  "truncation": null,
  "padding": null,
  "added_tokens": [
    {
      "id": 0,
      "content": "<pad>",
      "single_word": false,
      "lstrip": false,
      "rstrip": false,
      "normalized": false,
      "special": true
    },
    {
      "id": 1,
      "content": "<eos>",
      "single_word": false,
      "lstrip": false,
      "rstrip": false,
      "normalized": false,
      "special": true
    },
    {
      "id": 2,
      "content": "<bos>",
      "single_word": false,
      "lstrip": false,
      "rstrip": false,
      "normalized": false,
      "special": true
    },
    {
      "id": 3,
      "content": "<unk>",
      "single_word": false,
      "lstrip": false,
      "rstrip": false,
      "normalized": false,
      "special": true
    },
    {
      "id": 4,
      "content": "<start_of_turn>",
      "single_word": false,
      "lstrip": false,
      "rstrip": false,
      "normalized": false,
      "special": true
    },
    {
      "id": 5,
      "content": "<end_of_turn>",
      "single_word": false,
      "lstrip": false,
      "rstrip": false,
      "normalized": false,
      "special": true
    }
  ],
  "normalizer": null,
  "pre_tokenizer": {
    "type": "ByteLevel",
    "add_prefix_space": false,
    "trim_offsets": true,
    "use_regex": true
  },
  "post_processor": null,
  "decoder": {
    "type": "ByteLevel",
    "add_prefix_space": true,
    "trim_offsets": true,
    "use_regex": true
  },
  "model": {
    "type": "BPE",
    "dropout": null,
    "unk_token": "<unk>",
    "continuing_subword_prefix": null,
    "end_of_word_suffix": null,
    "fuse_unk": false,
    "byte_fallback": false,
    "ignore_merges": false,
    "vocab": {
      "<pad>": 0,
      "<eos>": 1,
      "<bos>": 2,
      "<unk>": 3,
      "<start_of_turn>": 4,
      "<end_of_turn>": 5,
      "!": 6,
      "\"": 7,
      "#": 8,
      "$": 9,
      "%": 10,
      "&": 11,
      "'": 12,
      "(": 13,
      ")": 14,
      "*": 15,
      "+": 16,
      ",": 17,
      "-": 18,
      ".": 19,
      "/": 20,
      "0": 21,
      "1": 22,
      "2": 23,
      "3": 24,
      "4": 25,
      "5": 26,
      "6": 27,
      "7": 28,
      "8": 29,
      "9": 30,
      ":": 31,
      ";": 32,
      "<": 33,
      "=": 34,
      ">": 35,
      "?": 36,
      "@": 37,
      "A": 38,
      "B": 39,
      "C": 40,
      "D": 41,
      "E": 42,
      "F": 43,
      "G": 44,
      "H": 45,
      "I": 46,
      "J": 47,
      "K": 48,
      "L": 49,
      "M": 50,
      "N": 51,
      "O": 52,
      "P": 53,
      "Q": 54,
      "R": 55,
      "S": 56,
      "T": 57,
      "U": 58,
      "V": 59,
      "W": 60,
      "X": 61,
      "Y": 62,
      "Z": 63,
      "[": 64,
      "\\": 65,
      "]": 66,
      "^": 67,
      "_": 68,
      "`": 69,
      "a": 70,
      "b": 71,
      "c": 72,
      "d": 73,
      "e": 74,
      "f": 75,
      "g": 76,
      "h": 77,
      "i": 78,
      "j": 79,
      "k": 80,
      "l": 81,
      "m": 82,
      "n": 83,
      "o": 84,
      "p": 85,
      "q": 86,
      "r": 87,
      "s": 88,
      "t": 89,
      "u": 90,
      "v": 91,
      "w": 92,
      "x": 93,
      "y": 94,
      "z": 95,
      "{": 96,
      "|": 97,
      "}": 98,
      "~": 99,
      "¡": 100,
      "¢": 101,
      "£": 102,
      "¤": 103,
      "¥": 104,
      "¦": 105,
      "§": 106,
      "¨": 107,
      "©": 108,
      "ª": 109,
      "«": 110,
      "¬": 111,
      "®": 112,
      "¯": 113,
      "°": 114,
      "±": 115,
      "²": 116,
      "³": 117,
      "´": 118,
      "µ": 119,
      "¶": 120,
      "·": 121,
      "¸": 122,
      "¹": 123,
      "º": 124,
      "»": 125,
      "¼": 126,
      "½": 127,
      "¾": 128,
      "¿": 129,
      "À": 130,
      "Á": 131,
      "Â": 132,
      "Ã": 133,
      "Ä": 134,
      "Å": 135,
      "Æ": 136,
      "Ç": 137,
      "È": 138,
      "É": 139,
      "Ê": 140,
      "Ë": 141,
      "Ì": 142,
      "Í": 143,
      "Î": 144,
      "Ï": 145,
      "Ð": 146,
      "Ñ": 147,
      "Ò": 148,
      "Ó": 149,
      "Ô": 150,
      "Õ": 151,
      "Ö": 152,
      "×": 153,
      "Ø": 154,
      "Ù": 155,
      "Ú": 156,
      "Û": 157,
      "Ü": 158,
      "Ý": 159,
      "Þ": 160,
      "ß": 161,
      "à": 162,
      "á": 163,
      "â": 164,
      "ã": 165,
      "ä": 166,
      "å": 167,
      "æ": 168,
      "ç": 169,
      "è": 170,
      "é": 171,
      "ê": 172,
      "ë": 173,
      "ì": 174,
      "í": 175,
      "î": 176,
      "ï": 177,
      "ð": 178,
      "ñ": 179,
      "ò": 180,
      "ó": 181,
      "ô": 182,
      "õ": 183,
      "ö": 184,
      "÷": 185,
      "ø": 186,
      "ù": 187,
      "ú": 188,
      "û": 189,
      "ü": 190,
      "ý": 191,
      "þ": 192,
      "ÿ": 193,
      "Ā": 194,
      "ā": 195,
      "Ă": 196,
      "ă": 197,
      "Ą": 198,
      "ą": 199,
      "Ć": 200,
      "ć": 201,
      "Ĉ": 202,
      "ĉ": 203,
      "Ċ": 204,
      "ċ": 205,
      "Č": 206,
      "č": 207,
      "Ď": 208,
      "ď": 209,
      "Đ": 210,
      "đ": 211,
      "Ē": 212,
      "ē": 213,
      "Ĕ": 214,
      "ĕ": 215,
      "Ė": 216,
      "ė": 217,
      "Ę": 218,
      "ę": 219,
      "Ě": 220,
      "ě": 221,
      "Ĝ": 222,
      "ĝ": 223,
      "Ğ": 224,
      "ğ": 225,
      "Ġ": 226,
      "ġ": 227,
      "Ģ": 228,
      "ģ": 229,
      "Ĥ": 230,
      "ĥ": 231,
      "Ħ": 232,
      "ħ": 233,
      "Ĩ": 234,
      "ĩ": 235,
      "Ī": 236,
      "ī": 237,
      "Ĭ": 238,
      "ĭ": 239,
      "Į": 240,
      "į": 241,
      "İ": 242,
      "ı": 243,
      "Ĳ": 244,
      "ĳ": 245,
      "Ĵ": 246,
      "ĵ": 247,
      "Ķ": 248,
      "ķ": 249,
      "ĸ": 250,
      "Ĺ": 251,
      "ĺ": 252,
      "Ļ": 253,
      "ļ": 254,
      "Ľ": 255,
      "ľ": 256,
      "Ŀ": 257,
      "ŀ": 258,
      "Ł": 259,
      "ł": 260,
      "Ń": 261,
      "á»": 262,
      "Ġt": 263,
      "ng": 264,
      "áº": 265,
      "Ġc": 266,
      "Ġth": 267,
      "ĠÄ": 268,
      "ĠÄĳ": 269,
      "Ġa": 270,
      "nh": 271,
      "Ġs": 272,
      "Ãł": 273,
      "Ġh": 274,
      "Ġb": 275,
      "Ġl": 276,
      "Ġv": 277,
      "Ġm": 278,
      "er": 279,
      "on": 280,
      "Ġthe": 281,
      "Ġp": 282,
      "Æ°": 283,
      "Ã¡": 284,
      "in": 285,
      "Ġo": 286,
      "Ġd": 287,
      "re": 288,
      "Ġch": 289,
      "Ġk": 290,
      "Ġn": 291,
      "at": 292,
      "en": 293,
      "iá»": 294,
      "an": 295,
      "Ã´": 296,
      "Ġtr": 297,
      "Ġg": 298,
      "Ġw": 299,
      "Æ°á»": 300,
      "es": 301,
      "it": 302,
      "or": 303,
      "áº¿": 304,
      "Ġnh": 305,
      "is": 306,
      "Ġof": 307,
      "ed": 308,
      "nd": 309,
      "ou": 310,
      "Ã³": 311,
      "áº¡": 312,
      "al": 313,
      "ing": 314,
      "Ġf": 315,
      "áº£": 316,
      "ĠÄĳá»": 317,
      "Ġkh": 318,
      "Ġto": 319,
      "Ġng": 320,
      "Ġph": 321,
      "ion": 322,
      "Ġand": 323,
      "Ġin": 324,
      "qu": 325,
      "ar": 326,
      "áº¥": 327,
      "Ãª": 328,
      "á»Ļ": 329,
      "ic": 330,
      "Ã´ng": 331,
      "Ġqu": 332,
      "ĠvÃł": 333,
      "Ã¡c": 334,
      "Ġcá»": 335,
      "iá»ĩ": 336,
      "ro": 337,
      "ent": 338,
      "á»ĳ": 339,
      "ĠT": 340,
      "Ġvá»": 341,
      "Ã¢": 342,
      "Ġ\"": 343,
      "áºŃ": 344,
      "le": 345,
      "as": 346,
      "Ġr": 347,
      "Ã¬": 348,
      "Ġthá»": 349,
      "Ãªn": 350,
      "Æ¡": 351,
      "ĠC": 352,
      "ch": 353,
      "§a": 354,
      "Ġcá»§a": 355,
      "Ġy": 356,
      "Ġre": 357,
      "ĠlÃł": 358,
      "ct": 359,
      "Ġe": 360,
      "ay": 361,
      "om": 362,
      "Ġtá»": 363,
      "Ġgi": 364,
      "áº§": 365,
      "us": 366,
      "et": 367,
      "ĠcÃ³": 368,
      "Æ°á»Ŀ": 369,
      "ll": 370,
      "ation": 371,
      "ÃŃ": 372,
      "Ġhá»": 373,
      "Æ°á»£": 374,
      "ve": 375,
      "Ġx": 376,
      "iáº¿": 377,
      "Ľi": 378,
      "Ġchá»": 379,
      "Ġyou": 380,
      "ĠcÃ¡c": 381,
      "á»Ļt": 382,
      "Ã´i": 383,
      "id": 384,
      "áº¡i": 385,
      "Ã£": 386,
      "Ãº": 387,
      "Äĥ": 388,
      "im": 389,
      "ĠI": 390,
      "am": 391,
      "Ġ1": 392,
      "uy": 393,
      "ly": 394,
      "ut": 395,
      "áº¥t": 396,
      "Ġbe": 397,
      "Ġfor": 398,
      "ong": 399,
      "ĠN": 400,
      "Ġmá»Ļt": 401,
      "he": 402,
      "Æ°á»£c": 403,
      "Ġon": 404,
      "ĠS": 405,
      "ĠA": 406,
      "iá»ģ": 407,
      "ment": 408,
      "ĠkhÃ´ng": 409,
      "Ġdá»": 410,
      "ce": 411,
      "ot": 412,
      "ĠÄĳÆ°á»£c": 413,
      "Ãły": 414,
      "ĠB": 415,
      "Ġho": 416,
      "..": 417,
      "ad": 418,
      "ur": 419,
      "ĠM": 420,
      "Ġsá»": 421,
      "ig": 422,
      "Ġcon": 423,
      "st": 424,
      "Ġwh": 425,
      "Ã¢n": 426,
      "áº£n": 427,
      "Ã¬nh": 428,
      "ow": 429,
      "áº¯": 430,
      "Æ°á»Ŀi": 431,
      "Ġpro": 432,
      "á»¯": 433,
      "ĠÄĳá»ĭ": 434,
      "Ġtrong": 435,
      "Ġor": 436,
      "ĠP": 437,
      "Ġ2": 438,
      "Ġis": 439,
      "iá»ģu": 440,
      "áº·": 441,
      "il": 442,
      "Ġngh": 443,
      "ir": 444,
      "ith": 445,
      "Æ°á»Ľ": 446,
      "Ãłnh": 447,
      "Ġvá»Ľi": 448,
      "iá»ĩn": 449,
      "00": 450,
      "ĠH": 451,
      "Ġthat": 452,
      "áº£i": 453,
      "Ġst": 454,
      "á»Ł": 455,
      "ol": 456,
      "áº¡n": 457,
      "Ġcho": 458,
      "iá»ĥ": 459,
      "ers": 460,
      "ĠtÃ´i": 461,
      "Ġquy": 462,
      "ĠngÆ°á»Ŀi": 463,
      "Ġta": 464,
      "Ġas": 465,
      "Ġ(": 466,
      "Ġdo": 467,
      "Ġwith": 468,
      "Ġlá»": 469,
      "ĠÄĳá»ĭnh": 470,
      "if": 471,
      "±c": 472,
      "se": 473,
      "ul": 474,
      "Ġsa": 475,
      "ĠÄĳÃ£": 476,
      "Ġit": 477,
      "th": 478,
      "iÃªn": 479,
      "Ġbá»": 480,
      "ter": 481,
      "©c": 482,
      "áº§u": 483,
      "ĠD": 484,
      "ver": 485,
      "'s": 486,
      "Ġu": 487,
      "áº¥y": 488,
      "Æ°á»Ľc": 489,
      "ang": 490,
      "Ġan": 491,
      "ere": 492,
      "ec": 493,
      "Ġha": 494,
      "á»¯ng": 495,
      "Ġsh": 496,
      "ies": 497,
      "ate": 498,
      "áº§n": 499,
      "ĠV": 500,
      "Ġthu": 501,
      "ĠnhÆ°": 502,
      "áº¿t": 503,
      "Ġthá»ĥ": 504,
      "ĠL": 505,
      "Ã½": 506,
      "est": 507,
      "Ġhe": 508,
      "ĠnÃ³": 509,
      "Æ°Æ¡": 510,
      "Ã²": 511,
      "áºŃt": 512,
      "Ãºng": 513,
      "ist": 514,
      "Ãłi": 515,
      "Ġsu": 516,
      "ĠÄĳá»Ļ": 517,
      "Ġnhá»¯ng": 518,
      "Æ°á»Ŀng": 519,
      "ĠnÃły": 520,
      "Ġmá»": 521,
      "©ng": 522,
      "±ng": 523,
      "ag": 524,
      "Ã¹": 525,
      "Ġcom": 526,
      "Ã¢y": 527,
      "Ġwas": 528,
      "ĠnÄĥ": 529,
      "ÃŃnh": 530,
      "ĠÄĳÃ³": 531,
      "pp": 532,
      "ĠG": 533,
      "all": 534,
      "ld": 535,
      "em": 536,
      "and": 537,
      "ao": 538,
      "od": 539,
      "anh": 540,
      "áºŃn": 541,
      "áº½": 542,
      "ĠÄĳá»ĥ": 543,
      "Æ°Æ¡ng": 544,
      "áº¿n": 545,
      "Ġvá»ģ": 546,
      "Ġra": 547,
      "inh": 548,
      "ĠÄĲ": 549,
      "op": 550,
      "ect": 551,
      "ĠcÃ´ng": 552,
      "Ã¡n": 553,
      "Ġtrá»": 554,
      "Ġlo": 555,
      "Ġhá»į": 556,
      "Ãłng": 557,
      "Ġex": 558,
      "uyá»": 559,
      "Ġkhi": 560,
      "ill": 561,
      "ust": 562,
      "ĠphÃ¡": 563,
      "ore": 564,
      "ke": 565,
      "ain": 566,
      "ant": 567,
      "áº©": 568,
      "Ġgiá»": 569,
      "Ġsá»ĳ": 570,
      "ĠCh": 571,
      "áºŃp": 572,
      "Ŀi": 573,
      "Ġbáº¡n": 574,
      "ess": 575,
      "Ġtá»«": 576,
      "Ġare": 577,
      "ĠTh": 578,
      "res": 579,
      "iáº¿t": 580,
      "ĠK": 581,
      "Ġat": 582,
      "el": 583,
      "iv": 584,
      "ort": 585,
      "igh": 586,
      "áº·c": 587,
      "iá»ĩc": 588,
      "Ġpháº£i": 589,
      "Ġquan": 590,
      "Ġá»Ł": 591,
      "ity": 592,
      "ĠvÃło": 593,
      "ĠnÄĥm": 594,
      "ĠÄĳáº¿n": 595,
      "ab": 596,
      "áº±ng": 597,
      "Ġsáº½": 598,
      "Ġtheo": 599,
      "ac": 600,
      "Ġ'": 601,
      "ung": 602,
      "Ġcáº£": 603,
      "á»ĵ": 604,
      "Æ¡n": 605,
      "Ãłn": 606,
      "ĠR": 607,
      "ĠlÃłm": 608,
      "Ġby": 609,
      "¥c": 610,
      "Ġnot": 611,
      "Ġwe": 612,
      "ri": 613,
      "ĠF": 614,
      "Ġthis": 615,
      "Ã©": 616,
      "Ġviá»ĩc": 617,
      "uá»ĳ": 618,
      "ĠÄĳáº§u": 619,
      "rom": 620,
      "Ã¡o": 621,
      "ĠchÃºng": 622,
      "Ã¡ng": 623,
      "Ã¡i": 624,
      "um": 625,
      "Ġme": 626,
      "\\'": 627,
      "Ġde": 628,
      "£p": 629,
      "iá»ĥm": 630,
      "Ġhiá»ĩn": 631,
      "Ġtáº¡i": 632,
      "art": 633,
      "gh": 634,
      "Ä©": 635,
      "ra": 636,
      "Ġthá»±c": 637,
      "Ġhá»£p": 638,
      "áº¥p": 639,
      "ĠW": 640,
      "Ġsá»±": 641,
      "ial": 642,
      "Ġdá»¥": 643,
      "ĠE": 644,
      "ĠÄĳá»Ļng": 645,
      "iáº¿n": 646,
      "Ġláº¡i": 647,
      "ight": 648,
      "Ġyour": 649,
      "Ġfrom": 650,
      "iz": 651,
      "ÄĲ": 652,
      "ĠhÃłnh": 653,
      "Ġhave": 654,
      "os": 655,
      "ĠnÆ°á»Ľc": 656,
      "á»Ļi": 657,
      "ĠcÆ¡": 658,
      "end": 659,
      "Ġso": 660,
      "Ġse": 661,
      "un": 662,
      "ive": 663,
      "01": 664,
      "Ã¹ng": 665,
      "ould": 666,
      "Ġ3": 667,
      "ard": 668,
      "ations": 669,
      "ĠThe": 670,
      "ai": 671,
      "Ġdá»¥ng": 672,
      "ĠkhÃ¡c": 673,
      "ĠmÃł": 674,
      "ĠthÃłnh": 675,
      "ĠngÃły": 676,
      "Ġne": 677,
      "Ãło": 678,
      "ry": 679,
      "áº£o": 680,
      "ģn": 681,
      "Ġshall": 682,
      "ĠnhÃł": 683,
      "Ġkho": 684,
      "ĠÄĳiá»ģu": 685,
      "Ġgo": 686,
      "Ġle": 687,
      "ĠlÃ½": 688,
      "á»Ļc": 689,
      "Ġchá»ī": 690,
      "á»ķ": 691,
      "Ġanh": 692,
      "Ġcomp": 693,
      "ĠnÃ³i": 694,
      "The": 695,
      "nt": 696,
      "á»ĳi": 697,
      "use": 698,
      "ud": 699,
      "Ġbá»ĭ": 700,
      "áº¿u": 701,
      "ance": 702,
      "ĠÄĳá»ĵ": 703,
      "ĠchÃŃnh": 704,
      "Ġhoáº·c": 705,
      "ions": 706,
      "Ãªu": 707,
      "ĠtrÃªn": 708,
      "ap": 709,
      "Ġ:": 710,
      "iá»ĩu": 711,
      "á»§": 712,
      "áº¡t": 713,
      "ĠO": 714,
      "Ġwor": 715,
      "áº«": 716,
      "Ġsp": 717,
      "ure": 718,
      "ip": 719,
      "Ġchá»©c": 720,
      "age": 721,
      "rt": 722,
      "'t": 723,
      "ĠhÃłng": 724,
      "ia": 725,
      "Ġká»": 726,
      "ĠnhÃ¢n": 727,
      "Ġpl": 728,
      "uct": 729,
      "Ġcan": 730,
      "ĠJ": 731,
      "Ġag": 732,
      "Ġj": 733,
      "ĠÄĳá»ĳ": 734,
      "Ġab": 735,
      "Ġtá»ķ": 736,
      "cc": 737,
      "ans": 738,
      "Äĥn": 739,
      "Th": 740,
      "ice": 741,
      "Ġim": 742,
      "Ġnghiá»ĩ": 743,
      "out": 744,
      "ated": 745,
      "...": 746,
      "Ġal": 747,
      "ĠtÆ°": 748,
      "Ġsau": 749,
      "Ã¡ch": 750,
      "ich": 751,
      "ep": 752,
      "Ġall": 753,
      "ÃŃch": 754,
      "ie": 755,
      "Ġhis": 756,
      "Ġman": 757,
      "ĠÄĳi": 758,
      "au": 759,
      "Ġcáº¥p": 760,
      "ĭch": 761,
      "ĠnháºŃn": 762,
      "Ġ19": 763,
      "áº¯t": 764,
      "á»ĳc": 765,
      "Ġvá»¥": 766,
      "ĠÃ´ng": 767,
      "ĠÄĳá»ĵng": 768,
      "per": 769,
      "Å©ng": 770,
      "Ġsá»Ń": 771,
      "ord": 772,
      "ĠgiÃ¡": 773,
      "ome": 774,
      "port": 775,
      "ire": 776,
      "Ã¢u": 777,
      "ide": 778,
      "our": 779,
      "uyá»ĩ": 780,
      "ĠgÃ¬": 781,
      "ok": 782,
      "ime": 783,
      "Ġapp": 784,
      "Ġlu": 785,
      "ĠhÆ¡n": 786,
      "Ã²ng": 787,
      "Ġtháº¿": 788,
      "Æ°á»£ng": 789,
      "iá»ĩt": 790,
      "Ġthey": 791,
      "Ã¡t": 792,
      "ĠthÃ´ng": 793,
      "Ġthá»Ŀi": 794,
      "Ġcont": 795,
      "Ġtiáº¿": 796,
      "ine": 797,
      "Ã¡nh": 798,
      "ĠmÃ¬nh": 799,
      "ĠthÃ¬": 800,
      "her": 801,
      "ĠtrÃ¬nh": 802,
      "áº·t": 803,
      "ĥn": 804,
      "ĠTr": 805,
      "Ġsáº£n": 806,
      "Ġout": 807,
      "ber": 808,
      "ign": 809,
      "orm": 810,
      "rtic": 811,
      "rou": 812,
      "ĠÄĳá»ģ": 813,
      "ĠcÅ©ng": 814,
      "Äĥng": 815,
      "ĠcÃ´": 816,
      "á»ĳng": 817,
      "ĠÄĳang": 818,
      "ff": 819,
      "ĠÄĳá»ĳi": 820,
      "Æ°á»Ł": 821,
      "Ġres": 822,
      "ĠthÃ¡ng": 823,
      "áº¡o": 824,
      "Ġbáº£o": 825,
      "Ġup": 826,
      "Ġbut": 827,
      "ally": 828,
      "ĠphÃ¡p": 829,
      "Æ°á»Łng": 830,
      "ther": 831,
      "Ġbiáº¿t": 832,
      "one": 833,
      "Ġma": 834,
      "Ġtháº¥y": 835,
      "Ġvi": 836,
      "áº©m": 837,
      "ĠtrÆ°á»Ŀng": 838,
      "Ġgia": 839,
      "Ġxu": 840,
      "ast": 841,
      "Ġmy": 842,
      "are": 843,
      "ĠQ": 844,
      "á»ģn": 845,
      "Ġhá»įc": 846,
      "oc": 847,
      "Ġad": 848,
      "Ġem": 849,
      "ack": 850,
      "áº«n": 851,
      "Ġhad": 852,
      "rticle": 853,
      "Ġnghiá»ĩp": 854,
      "Æ°a": 855,
      "Æ¡i": 856,
      "000": 857,
      "Ġher": 858,
      "ĠnghÄ©": 859,
      "áº¯c": 860,
      "Ġte": 861,
      "vel": 862,
      "enc": 863,
      "ame": 864,
      "Ġbáº£n": 865,
      "Ġnghá»": 866,
      "á»Ń": 867,
      "ities": 868,
      "king": 869,
      "Ġ5": 870,
      "Ġnháº¥t": 871,
      "uyÃªn": 872,
      "iá»ĥn": 873,
      "Ġkn": 874,
      "ĠcÃ¡ch": 875,
      "Ãºc": 876,
      "ĠphÃ¡t": 877,
      "Ġco": 878,
      "Ġli": 879,
      "Ġreg": 880,
      "Ġráº±ng": 881,
      "Ġacc": 882,
      "Ġwhich": 883,
      "ĠnhÆ°ng": 884,
      "itt": 885,
      "aw": 886,
      "Ġtheir": 887,
      "Ġ)": 888,
      "įi": 889,
      "Ġ4": 890,
      "ree": 891,
      "Ġint": 892,
      "ach": 893,
      "ish": 894,
      "Ã²n": 895,
      "Ġxuáº¥t": 896,
      "Ġtin": 897,
      "Ġprov": 898,
      "ind": 899,
      "iá»ģn": 900,
      "....": 901,
      "áº»": 902,
      "Ġus": 903,
      "Ġper": 904,
      "ĠSt": 905,
      "ĠnÃło": 906,
      "ĠNh": 907,
      "ear": 908,
      "Ġ\\'": 909,
      "Ġone": 910,
      "Ġquyá»ģn": 911,
      "Ġnhiá»ģu": 912,
      "á»ĵi": 913,
      "ĠÄĳÃ¢y": 914,
      "Ġngo": 915,
      "áº¥n": 916,
      "Ã´n": 917,
      "ous": 918,
      "ib": 919,
      "Ġbáº±ng": 920,
      "ical": 921,
      "eop": 922,
      "ens": 923,
      "ĠPh": 924,
      "ary": 925,
      "ks": 926,
      "gan": 927,
      "ult": 928,
      "iá»ĩm": 929,
      "âĢ": 930,
      "lic": 931,
      "ount": 932,
      "áºŃy": 933,
      "Ġun": 934,
      "og": 935,
      "Ġabout": 936,
      "ĠY": 937,
      "Ġcá»©": 938,
      "Ã¢m": 939,
      "ue": 940,
      "ause": 941,
      "ĠtÃłi": 942,
      "ments": 943,
      "Ġif": 944,
      "Ġwho": 945,
      "áº¡m": 946,
      "eople": 947,
      "uá»ĳn": 948,
      "ĠtrÆ°á»Ľc": 949,
      "pt": 950,
      "uyá»ĩn": 951,
      "Ġwill": 952,
      "Ġdoanh": 953,
      "Ġáº¥y": 954,
      "ĠhÃ¬nh": 955,
      "Ġbá»Ļ": 956,
      "á»ı": 957,
      "Ġthem": 958,
      "Ġban": 959,
      "form": 960,
      "ĠvÃ¬": 961,
      "Ġinv": 962,
      "inist": 963,
      "ĠU": 964,
      "iá»ĥu": 965,
      "Ġshe": 966,
      "Ġ201": 967,
      "ase": 968,
      "Ġtáº¿": 969,
      "áº¯n": 970,
      "Ġknow": 971,
      "pl": 972,
      "ĠlÃªn": 973,
      "nder": 974,
      "âĢ¦": 975,
      "Ġtra": 976,
      "Ġdá»±": 977,
      "Ġwere": 978,
      "Ġkáº¿t": 979,
      "Ġcl": 980,
      "ĠphÃŃ": 981,
      "Ġtá»±": 982,
      "Ġkinh": 983,
      "uá»Ļc": 984,
      "áº¥u": 985,
      "Ġquáº£n": 986,
      "Ġfe": 987,
      "ĠKh": 988,
      "Ġother": 989,
      "ĠBá»Ļ": 990,
      "ub": 991,
      "ĠcÃ²n": 992,
      "Ch": 993,
      "act": 994,
      "Ġact": 995,
      "Ġquyáº¿t": 996,
      "fer": 997,
      "Ġtime": 998,
      "Ġhoáº¡t": 999,
      "Ġwhat": 1000,
      "ĠviÃªn": 1001,
      "erv": 1002,
      "Ġcáº§n": 1003,
      "ĠcÃ¡i": 1004,
      "Ġthere": 1005,
      "áº¡ch": 1006,
      "ven": 1007,
      "Ġinc": 1008,
      "áº£ng": 1009,
      "Ġá»": 1010,
      "ater": 1011,
      "Ìģ": 1012,
      "ject": 1013,
      "Ġlike": 1014,
      "ĠÃ¡n": 1015,
      "ĠIn": 1016,
      "áº£m": 1017,
      "int": 1018,
      "ific": 1019,
      "ost": 1020,
      "Ġnhiá»ĩm": 1021,
      "Ġhim": 1022,
      "Ġmuá»ĳn": 1023,
      "Ġdis": 1024,
      "ĠdÃ¢n": 1025,
      "Ġqua": 1026,
      "áºŃu": 1027,
      "iÃªu": 1028,
      "Ġent": 1029,
      "ence": 1030,
      "Ġchá»©ng": 1031,
      "ĠÄĳá»ķ": 1032,
      "Ġwhen": 1033,
      "ons": 1034,
      "ĠliÃªn": 1035,
      "ose": 1036,
      "Ġkiá»ĥm": 1037,
      "Ġsá»Ł": 1038,
      "Ġdá»ĭch": 1039,
      "Ġphá»": 1040,
      "Ġhá»Ļi": 1041,
      "Ġdec": 1042,
      "iet": 1043,
      "įng": 1044,
      "Ã¡p": 1045,
      "ational": 1046,
      "Ġtiáº¿p": 1047,
      "ganiz": 1048,
      "Ġunder": 1049,
      "Ã³a": 1050,
      "ĠcÃ¹ng": 1051,
      "Ġhai": 1052,
      "ĠbÃ¡o": 1053,
      "Ġmore": 1054,
      "Ġtiá»ģn": 1055,
      "Ġfo": 1056,
      "ĠÄĲiá»ģu": 1057,
      "áº¹": 1058,
      "uyá»ĥn": 1059,
      "ace": 1060,
      "Ġhá»ĵ": 1061,
      "Ġany": 1062,
      "Ġpart": 1063,
      "Ġmu": 1064,
      "Ġwould": 1065,
      "Ġpháº§n": 1066,
      "ays": 1067,
      "Ġpres": 1068,
      "able": 1069,
      "ge": 1070,
      "ric": 1071,
      "Ġpre": 1072,
      "Æ°á»Ľng": 1073,
      "Ġsinh": 1074,
      "ass": 1075,
      "fter": 1076,
      "lect": 1077,
      "ĠnÃªn": 1078,
      "ĠlÆ°á»£ng": 1079,
      "ied": 1080,
      "Ġass": 1081,
      "Ġoff": 1082,
      "ĠláºŃp": 1083,
      "ell": 1084,
      "Ã¡y": 1085,
      "Ġná»¯": 1086,
      "uc": 1087,
      "Ġvá»ĭ": 1088,
      "Ġsaid": 1089,
      "Ġ6": 1090,
      "Ġimp": 1091,
      "ĠÄĳiá»ĥm": 1092,
      "ough": 1093,
      "ĠluáºŃt": 1094,
      "Ġnáº¿u": 1095,
      "Ġcomm": 1096,
      "Ġinto": 1097,
      "Ġhas": 1098,
      "TÃ´i": 1099,
      "Ġbao": 1100,
      "Ġchá»§": 1101,
      "ĠphÆ°Æ¡ng": 1102,
      "Ãªm": 1103,
      "ĠtoÃłn": 1104,
      "av": 1105,
      "Ġráº¥t": 1106,
      "Ġgiá»Ŀ": 1107,
      "ĠngoÃłi": 1108,
      "Ġind": 1109,
      "ĠNg": 1110,
      "Ġ\".": 1111,
      "rong": 1112,
      "Ã©p": 1113,
      "ual": 1114,
      "ris": 1115,
      "Ġthá»©": 1116,
      "ĠnÄĥng": 1117,
      "ĠÃ½": 1118,
      "ĠtÃŃnh": 1119,
      "duct": 1120,
      "Ġno": 1121,
      "á»ĳn": 1122,
      "ĠÄĳá»ķi": 1123,
      "ruct": 1124,
      "Ġro": 1125,
      "ĠthÆ°á»Ŀng": 1126,
      "Ġcáº§u": 1127,
      "Ġlá»Ľ": 1128,
      "ĠphÃ²ng": 1129,
      "Ġam": 1130,
      "hi": 1131,
      "Ġbeen": 1132,
      "Ĺi": 1133,
      "Æ°ng": 1134,
      "Ġgiá»¯": 1135,
      "áº¡ng": 1136,
      "Ġtáº¡o": 1137,
      "Ġ200": 1138,
      "ĩnh": 1139,
      "Ġdá»±ng": 1140,
      "Ġrá»ĵi": 1141,
      "ĠÄĳo": 1142,
      "Ġháº¡n": 1143,
      "Ġthan": 1144,
      "ors": 1145,
      "rib": 1146,
      "ond": 1147,
      "Ġget": 1148,
      "Ġty": 1149,
      "ert": 1150,
      "Ġen": 1151,
      "iá»ħ": 1152,
      "Ġsao": 1153,
      "ade": 1154,
      "«ng": 1155,
      "red": 1156,
      "Ġorganiz": 1157,
      "Ġsome": 1158,
      "Ġover": 1159,
      "Ġtrá»Ł": 1160,
      "ÄĲiá»ģu": 1161,
      "Ġtrá»ĭ": 1162,
      ").": 1163,
      "ĠquÃ¡": 1164,
      "Ġjust": 1165,
      "Ġmay": 1166,
      "Ġspec": 1167,
      "á»ĳt": 1168,
      "'re": 1169,
      "Ġgian": 1170,
      "ract": 1171,
      "áº³": 1172,
      "ÌĢ": 1173,
      "reat": 1174,
      "Ġchuyá»ĥn": 1175,
      "Ġins": 1176,
      "įn": 1177,
      "Ġmá»Ľi": 1178,
      "Ġkhoáº£n": 1179,
      "Ġmáº·t": 1180,
      "Nh": 1181,
      "Ġhay": 1182,
      "ĠváºŃy": 1183,
      "ĠNo": 1184,
      "Ġthá»©c": 1185,
      "Ġgiáº£i": 1186,
      "pect": 1187,
      "Ġcuá»Ļc": 1188,
      "ings": 1189,
      "ĠkÃ½": 1190,
      "Ġquá»ĳc": 1191,
      "cial": 1192,
      "Ġthuá»Ļc": 1193,
      "ĠGi": 1194,
      "Ġtriá»ĥn": 1195,
      "á»ĭ": 1196,
      "Ġ10": 1197,
      "ĠhÃ³a": 1198,
      "Ġtu": 1199,
      "ĠtÃ¡c": 1200,
      "áº©n": 1201,
      "á»ķi": 1202,
      "ĠváºŃt": 1203,
      "Ġkhu": 1204,
      "Ġtá»Ľi": 1205,
      "Ġmust": 1206,
      "Ġthá»ĳng": 1207,
      "Ġ7": 1208,
      "Ġpeople": 1209,
      "Ġgá»": 1210,
      "Ġyear": 1211,
      "Ġbec": 1212,
      "Ġinter": 1213,
      "Ġliá»ĩu": 1214,
      "wn": 1215,
      "á»Łi": 1216,
      "Ã¨": 1217,
      "ĠÄĳÆ¡n": 1218,
      "Ġ0": 1219,
      "ĠtoÃ¡n": 1220,
      "ak": 1221,
      "--": 1222,
      "áº¡nh": 1223,
      "Ġgiao": 1224,
      "Ġsc": 1225,
      "Ġbu": 1226,
      "Ġcháº¥t": 1227,
      "Ã¬m": 1228,
      "Ġchi": 1229,
      "ite": 1230,
      "very": 1231,
      "Ġbáº¯t": 1232,
      "Ġlá»±c": 1233,
      "erm": 1234,
      "ision": 1235,
      "Ġchuyá»ĩn": 1236,
      "ĠÄĳáº¥t": 1237,
      "Ġquáº£": 1238,
      "Ġinvest": 1239,
      "In": 1240,
      "Ġright": 1241,
      "Ġhá»ĩ": 1242,
      "ĠÄĳá»ĭa": 1243,
      "Ġcáº£m": 1244,
      "lement": 1245,
      "ĠNam": 1246,
      "ĠsÃ¡ch": 1247,
      "ail": 1248,
      "Ġthiáº¿t": 1249,
      "ents": 1250,
      "Ġpháº¡m": 1251,
      "oint": 1252,
      "Ã¬n": 1253,
      "ild": 1254,
      "Ġcháº¿": 1255,
      "Ġpr": 1256,
      "Ġrec": 1257,
      "own": 1258,
      "200": 1259,
      "we": 1260,
      "ĠÄĳáº¡i": 1261,
      "Ġcons": 1262,
      "Ġtrans": 1263,
      "ĠbÃªn": 1264,
      "Ã£y": 1265,
      "Ġloáº¡i": 1266,
      "201": 1267,
      "Ġcould": 1268,
      "Ġcao": 1269,
      "Ġkáº¿": 1270,
      "Ġwant": 1271,
      "omm": 1272,
      "Ġsub": 1273,
      "Ġthá»§": 1274,
      "ĠxÃ¢y": 1275,
      "Ãºt": 1276,
      "ĠyÃªu": 1277,
      "Ġi": 1278,
      "ĠtiÃªu": 1279,
      "Ġgood": 1280,
      "ĠÄĳÆ°á»Ŀng": 1281,
      "sel": 1282,
      "Ġuse": 1283,
      "Ġtw": 1284,
      "Ġhiá»ĩu": 1285,
      "Ġgiá»Ľi": 1286,
      "Æ°u": 1287,
      "ning": 1288,
      "ory": 1289,
      "Ġphá»§": 1290,
      "ink": 1291,
      "ark": 1292,
      "les": 1293,
      "nam": 1294,
      "Ġdon": 1295,
      "áº³ng": 1296,
      "Ġthuáº¿": 1297,
      "ĠvÄĥn": 1298,
      "ound": 1299,
      "ating": 1300,
      "ss": 1301,
      "ĠxÃ¡c": 1302,
      "ĠArticle": 1303,
      "ĠÄĳiá»ĩn": 1304,
      "Ġchiáº¿": 1305,
      "Ġ),": 1306,
      "llow": 1307,
      "ular": 1308,
      "Ġlá»Ľn": 1309,
      "te": 1310,
      "hing": 1311,
      "ures": 1312,
      "irst": 1313,
      "Ġserv": 1314,
      "ĠnháºŃp": 1315,
      "Ġtrung": 1316,
      "Ġwork": 1317,
      "ces": 1318,
      "fore": 1319,
      "ian": 1320,
      "Ġafter": 1321,
      "ĠphÃ©p": 1322,
      "ĠÃ": 1323,
      "Ġdid": 1324,
      "oy": 1325,
      "Ġpháº©m": 1326,
      "Ġmá»įi": 1327,
      "Ã©t": 1328,
      "ĠTÃ´i": 1329,
      "Ġtay": 1330,
      "ĠtÃ¬m": 1331,
      "ĠtáºŃp": 1332,
      "ND": 1333,
      "Article": 1334,
      "su": 1335,
      "ile": 1336,
      "Ġlaw": 1337,
      "old": 1338,
      "Äĥm": 1339,
      "Ġmake": 1340,
      "Ġfore": 1341,
      "Ġ8": 1342,
      "so": 1343,
      "NG": 1344,
      "ĠcÃ¡": 1345,
      "ates": 1346,
      "Ġbet": 1347,
      "ition": 1348,
      "agement": 1349,
      "Ġaccord": 1350,
      "ĠnhiÃªn": 1351,
      "Ġláº§n": 1352,
      "Ġrequ": 1353,
      "ıi": 1354,
      "ĠmÃ¡y": 1355,
      "Ġthá»ĭ": 1356,
      "You": 1357,
      "And": 1358,
      "ĠcÃ¡o": 1359,
      "ob": 1360,
      "ĠViá»ĩt": 1361,
      "á»Ļng": 1362,
      "ĠnhÃ¬n": 1363,
      "Ġagenc": 1364,
      "Ġthen": 1365,
      "Ġthay": 1366,
      "ietnam": 1367,
      "ĠX": 1368,
      "Ġsá»ĳng": 1369,
      "ĠCl": 1370,
      "Ġproc": 1371,
      "Ġhoáº¡ch": 1372,
      "ative": 1373,
      "áº¡c": 1374,
      "over": 1375,
      "Ġchu": 1376,
      "ĠMinist": 1377,
      "áº¯ng": 1378,
      "velop": 1379,
      "áº©u": 1380,
      "£i": 1381,
      "Ì£": 1382,
      "iá»ħn": 1383,
      "Ãºp": 1384,
      "get": 1385,
      "Ġsupp": 1386,
      "Ġpers": 1387,
      "ĠnÆ¡i": 1388,
      "Ġbr": 1389,
      "Ġhere": 1390,
      "ĠVietnam": 1391,
      "ĠHe": 1392,
      "Å©": 1393,
      "und": 1394,
      "Ġits": 1395,
      "It": 1396,
      "âĢ¦âĢ¦": 1397,
      "Ã¡m": 1398,
      "ov": 1399,
      "Ġsec": 1400,
      "Ġdáº«n": 1401,
      "Ġform": 1402,
      "Ġcap": 1403,
      "irect": 1404,
      "ne": 1405,
      "ĠtÃªn": 1406,
      "Ġtháº©m": 1407,
      "Ġcá»ĳ": 1408,
      "Ġfollow": 1409,
      "Ġrel": 1410,
      "Ġná»¯a": 1411,
      "lud": 1412,
      "Ġ9": 1413,
      "Ġnew": 1414,
      "Ġcá»Ń": 1415,
      "ĠtÃ¢m": 1416,
      "uth": 1417,
      "ĠtÃ¬nh": 1418,
      "ĠsÆ¡": 1419,
      "Ġfirst": 1420,
      "Ġonly": 1421,
      "Ġsee": 1422,
      "iss": 1423,
      "Ġkháº©u": 1424,
      "its": 1425,
      "ress": 1426,
      "Ġkhai": 1427,
      "ru": 1428,
      "Ġsy": 1429,
      "Ġváº«n": 1430,
      "Ġback": 1431,
      "áº£nh": 1432,
      "struct": 1433,
      "ĠsÃ¡t": 1434,
      "Ġá»©ng": 1435,
      "Ġbl": 1436,
      "Ãµ": 1437,
      "uyá»ģn": 1438,
      "ister": 1439,
      "ft": 1440,
      "Ġlook": 1441,
      "Ġar": 1442,
      "Ġtá»¥c": 1443,
      "Ġour": 1444,
      "Ġbáº¥t": 1445,
      "Ġ20": 1446,
      "ĠtrÃ¡ch": 1447,
      "ĠdÆ°á»": 1448,
      "ĠchÆ°a": 1449,
      "rough": 1450,
      "ĠcáºŃu": 1451,
      "Ġtrá»įng": 1452,
      "Ġngá»": 1453,
      "ood": 1454,
      "Ġproduct": 1455,
      "ee": 1456,
      "áº£y": 1457,
      "ĠgiÃºp": 1458,
      "ices": 1459,
      "ĠhoÃłn": 1460,
      "Ġwhere": 1461,
      "ital": 1462,
      "ĠMinistry": 1463,
      "Ġváº¥n": 1464,
      "Ġsuch": 1465,
      "Ġhand": 1466,
      "ery": 1467,
      "ĠÄĳá»§": 1468,
      "Ġrem": 1469,
      "áº§m": 1470,
      "ĠDec": 1471,
      "Ġtwo": 1472,
      "Ġxem": 1473,
      "Ġbá»ĩnh": 1474,
      "olog": 1475,
      "á»ĵm": 1476,
      "Ġnhau": 1477,
      "chn": 1478,
      "ĠhÆ°á»Ľng": 1479,
      "Ġneed": 1480,
      "ĠWh": 1481,
      "Ġbá»Łi": 1482,
      "ĠtrÆ°á»Łng": 1483,
      "Ġtáº¥t": 1484,
      "pris": 1485,
      "ull": 1486,
      "Ġmanagement": 1487,
      "Ġevery": 1488,
      "Ġgr": 1489,
      "ick": 1490,
      "ph": 1491,
      "ĠphÃ¢n": 1492,
      "Ġxá»Ń": 1493,
      "formation": 1494,
      "Ġob": 1495,
      "Ġcar": 1496,
      "Ġkiá»ĩn": 1497,
      "Ġalso": 1498,
      "Ġkhá»ı": 1499,
      "Ġgá»ĵm": 1500,
      "Ġchá»ĭ": 1501,
      "ĠChÃŃnh": 1502,
      "lish": 1503,
      "Ġfl": 1504,
      "Ġcá»©u": 1505,
      "Ġvá»ĳn": 1506,
      "Ã³c": 1507,
      "Ġbefore": 1508,
      "urn": 1509,
      "Ġtiáº¿ng": 1510,
      "Ġ15": 1511,
      "round": 1512,
      "Ġthi": 1513,
      "irc": 1514,
      "á»ĵn": 1515,
      "á»¹": 1516,
      "ious": 1517,
      "Ã³ng": 1518,
      "ĠthÃŃch": 1519,
      "Ġvá»±c": 1520,
      "Ġmá»©c": 1521,
      "Ġest": 1522,
      "uyáº¿t": 1523,
      "........": 1524,
      "Ġlá»ĩ": 1525,
      "ĠtiÃªn": 1526,
      "Ġhá»ıi": 1527,
      "Ġagain": 1528,
      "īnh": 1529,
      "'m": 1530,
      "Ġbá»ĳ": 1531,
      "Ġtá»«ng": 1532,
      "Ġthese": 1533,
      "crib": 1534,
      "Ġná»Ļi": 1535,
      "Wh": 1536,
      "áº§y": 1537,
      "Ġtá»ĳt": 1538,
      "Ġká»³": 1539,
      "Ġplan": 1540,
      "Ġthanh": 1541,
      "Ġhow": 1542,
      "Ġdevelop": 1543,
      "ĠnghÄ©a": 1544,
      "Ġenter": 1545,
      "Ġfin": 1546,
      "Ġmá»¥c": 1547,
      "ĠTo": 1548,
      "ĠNgh": 1549,
      "ew": 1550,
      "Ġgá»įi": 1551,
      "nment": 1552,
      "Ġtrá»£": 1553,
      "ĠdÃ¹ng": 1554,
      "Tr": 1555,
      "ĠbÃ¡n": 1556,
      "Ġdes": 1557,
      "ife": 1558,
      "ĠlÃ£": 1559,
      "Ġsm": 1560,
      "omet": 1561,
      "Ġgu": 1562,
      "Ġproject": 1563,
      "Ġregul": 1564,
      "Ġrá»": 1565,
      "Ġnhá»": 1566,
      "iness": 1567,
      "ĠxÃ£": 1568,
      "Ġká»ĥ": 1569,
      "Ġbo": 1570,
      "ĠÄĥn": 1571,
      "Ġ12": 1572,
      "ility": 1573,
      "ĠthuáºŃt": 1574,
      "Ġland": 1575,
      "ĠÄĳÃ¡nh": 1576,
      "ĠthÆ°Æ¡ng": 1577,
      "Ġcert": 1578,
      "ily": 1579,
      "ĠÄĳÆ°a": 1580,
      "air": 1581,
      "ĠbÃł": 1582,
      "Ġloc": 1583,
      "Ġown": 1584,
      "ĠComm": 1585,
      "iáº¿u": 1586,
      "ĠState": 1587,
      "Ġstate": 1588,
      "If": 1589,
      "Ġtham": 1590,
      "Ġbá»ı": 1591,
      "ĠtháºŃt": 1592,
      "Ġway": 1593,
      "«a": 1594,
      "ise": 1595,
      "ĠnguyÃªn": 1596,
      "ution": 1597,
      "Ġnow": 1598,
      "áº·p": 1599,
      "uá»ĳi": 1600,
      "Ġtráº£": 1601,
      "Ġoper": 1602,
      "Ġset": 1603,
      "Náº¿u": 1604,
      "gr": 1605,
      "ublic": 1606,
      "Ġinst": 1607,
      "ener": 1608,
      "uring": 1609,
      "ĠÄĳáº£m": 1610,
      "uá»ĳng": 1611,
      "áº±": 1612,
      "CP": 1613,
      "pe": 1614,
      "Ġchiáº¿n": 1615,
      "ĠlÃºc": 1616,
      "Ġatt": 1617,
      "Ġháº¿t": 1618,
      "ty": 1619,
      "rit": 1620,
      "Ġnghá»ĭ": 1621,
      "Ġinclud": 1622,
      "Ġpay": 1623,
      "other": 1624,
      "Ġmin": 1625,
      "Ġtax": 1626,
      "Ġbiá»ĩt": 1627,
      "Ġimport": 1628,
      "Ġthink": 1629,
      "Ġcá»ķ": 1630,
      "Ġdown": 1631,
      "ĠÄĳÃºng": 1632,
      "ath": 1633,
      "Ġlá»Ŀi": 1634,
      "Ġná»": 1635,
      "stem": 1636,
      "Ġai": 1637,
      "Ġtho": 1638,
      "Ġvá»ĩ": 1639,
      "ÃŃt": 1640,
      "Ġtake": 1641,
      "He": 1642,
      "Ġxe": 1643,
      "ĠTá»ķ": 1644,
      "ix": 1645,
      "ĠIt": 1646,
      "uthor": 1647,
      "This": 1648,
      "Ġphá»¥c": 1649,
      "ward": 1650,
      "Ġgiá»¯a": 1651,
      "ese": 1652,
      "Ġinformation": 1653,
      "ible": 1654,
      "self": 1655,
      "row": 1656,
      "Ġmon": 1657,
      "Ġ18": 1658,
      "ified": 1659,
      "Ġthrough": 1660,
      "Ġcol": 1661,
      "Ã¡u": 1662,
      "usiness": 1663,
      "ĠÄĳÄĥng": 1664,
      "ren": 1665,
      "ĠNhÃł": 1666,
      "cribed": 1667,
      "ower": 1668,
      "Ġdif": 1669,
      "ah": 1670,
      "ident": 1671,
      "ural": 1672,
      "Ġtiáº¿n": 1673,
      "Ġsay": 1674,
      "VÃł": 1675,
      "ĠÄĳá»ģu": 1676,
      "Ng": 1677,
      "amp": 1678,
      "Ġhel": 1679,
      "Ġshould": 1680,
      "way": 1681,
      "Ġdung": 1682,
      "Ġphá»ĳ": 1683,
      "Ġeven": 1684,
      "Ġnum": 1685,
      "19": 1686,
      "Ġappro": 1687,
      "ĠtrÃŃ": 1688,
      "áº¥m": 1689,
      "der": 1690,
      "Ġgoing": 1691,
      "Ġagencies": 1692,
      "Ġpol": 1693,
      "Ġchiáº¿c": 1694,
      "Ġlong": 1695,
      "oun": 1696,
      "Ġimplement": 1697,
      "áº±m": 1698,
      "Ġdet": 1699,
      "Ġmua": 1700,
      "ble": 1701,
      "ts": 1702,
      "ĠAnh": 1703,
      "ÃŃn": 1704,
      "Ġexp": 1705,
      "Ġtechn": 1706,
      "led": 1707,
      "ĠNghá»ĭ": 1708,
      "ĠÄĳáº·c": 1709,
      "Ġreport": 1710,
      "'ll": 1711,
      "Ġkiáº¿n": 1712,
      "ĠRe": 1713,
      "áº¯m": 1714,
      "Ġáº£nh": 1715,
      "aining": 1716,
      "ank": 1717,
      "Ġbecause": 1718,
      "Ġdiá»ĩn": 1719,
      "ĠThÃ´ng": 1720,
      "ient": 1721,
      "Ġnghá»ĩ": 1722,
      "Ġngu": 1723,
      "ivid": 1724,
      "uyá»ĩt": 1725,
      "ange": 1726,
      "Ġperson": 1727,
      "Ġcent": 1728,
      "Ġyears": 1729,
      "ĠgiÃ¡o": 1730,
      "ĠÄĳáº·t": 1731,
      "Ãłu": 1732,
      "Ġhead": 1733,
      "up": 1734,
      "Ġtá»īnh": 1735,
      "Ġval": 1736,
      "Ġhelp": 1737,
      "ĠtÄĥng": 1738,
      "Ġauthor": 1739,
      "á»Ļp": 1740,
      "Ġchá»įn": 1741,
      "inistr": 1742,
      "io": 1743,
      "Ġtrá»±c": 1744,
      "Ġgiáº¥y": 1745,
      "ĠcÃ¢u": 1746,
      "Ġenterpris": 1747,
      "ting": 1748,
      "Ġthough": 1749,
      "Ġngay": 1750,
      "ection": 1751,
      "Ġaccording": 1752,
      "Ġchar": 1753,
      "Ġrep": 1754,
      "Ġcung": 1755,
      "struction": 1756,
      "land": 1757,
      "Ġmade": 1758,
      "Ġsystem": 1759,
      "ased": 1760,
      "áº«u": 1761,
      "ĳng": 1762,
      "Ġcall": 1763,
      "ween": 1764,
      "Ġbiáº¿n": 1765,
      "ĠdÆ°á»Ľi": 1766,
      "ĠtÆ°Æ¡ng": 1767,
      "ĠtÆ°á»£ng": 1768,
      "Ġdirect": 1769,
      "any": 1770,
      "Ġrece": 1771,
      "ather": 1772,
      "Ġadd": 1773,
      "Ìī": 1774,
      "ving": 1775,
      "ked": 1776,
      "Ġeach": 1777,
      "Ġorganizations": 1778,
      "ĠÃ¡p": 1779,
      "ĠngÃ¢n": 1780,
      "ized": 1781,
      "Ġsomet": 1782,
      "Ġlao": 1783,
      "Ġba": 1784,
      "įc": 1785,
      "ĠsÃ¡ng": 1786,
      "Ġresp": 1787,
      "Ġeff": 1788,
      "ĠÄĲá»": 1789,
      "ĠthÃ¢n": 1790,
      "Ġnhá»ı": 1791,
      "ĠTH": 1792,
      "Ġxuá»ĳng": 1793,
      "Ġ30": 1794,
      "Ġláº¥y": 1795,
      "isions": 1796,
      "iÃª": 1797,
      "ĠÄĳÃ¢u": 1798,
      "Ġ\",": 1799,
      "ron": 1800,
      "als": 1801,
      "Ġdep": 1802,
      "Ġcá»Ńa": 1803,
      "Ġkhá»ıi": 1804,
      "Ã³m": 1805,
      "ved": 1806,
      "Ġinvestment": 1807,
      "ier": 1808,
      "Ġ11": 1809,
      "Ġactiv": 1810,
      "ually": 1811,
      "Ġbeing": 1812,
      "ĠváºŃn": 1813,
      "Ġday": 1814,
      "ĠbÃ¬nh": 1815,
      "ĠQu": 1816,
      "ĠYou": 1817,
      "ĠClause": 1818,
      "ĠsÄ©": 1819,
      "Ġnghe": 1820,
      "Ġev": 1821,
      "Ġbusiness": 1822,
      "©a": 1823,
      "TI": 1824,
      "áº¯p": 1825,
      "oth": 1826,
      "Ġbetween": 1827,
      "ĠLu": 1828,
      "Ġcompet": 1829,
      "ĠphÃŃa": 1830,
      "'ve": 1831,
      "ĠquÃ¢n": 1832,
      "Ġequ": 1833,
      "Ġprescribed": 1834,
      "cu": 1835,
      "Ġvery": 1836,
      "Ġchuáº©n": 1837,
      "Ġac": 1838,
      "ĠCon": 1839,
      "ĠCÃ´ng": 1840,
      "Ġprovin": 1841,
      "ĠhÃ£y": 1842,
      "ĠchuyÃªn": 1843,
      "So": 1844,
      "Ġhigh": 1845,
      "Ġwell": 1846,
      "Ġbá»ķ": 1847,
      "ited": 1848,
      "Ġtá»ķng": 1849,
      "Ġforeign": 1850,
      "Ġmost": 1851,
      "Ġtá»Ń": 1852,
      "tern": 1853,
      "ĠPro": 1854,
      "Ġthuá»ĳc": 1855,
      "Ġwater": 1856,
      "Ķng": 1857,
      "Ġgiá»ĳng": 1858,
      "Ġca": 1859,
      "Ġhiá»ĥu": 1860,
      "Ġtá»ĳi": 1861,
      "Ġsur": 1862,
      "ouse": 1863,
      "alth": 1864,
      "ablish": 1865,
      "Ġsign": 1866,
      "Ġused": 1867,
      "Ġkhoáº£ng": 1868,
      "Ġphá»¥": 1869,
      "Ġdist": 1870,
      "uyáº¿n": 1871,
      "ĠGover": 1872,
      "Äĳ": 1873,
      "Ġregulations": 1874,
      "ful": 1875,
      "Ġtranh": 1876,
      "con": 1877,
      "Ġcount": 1878,
      "ale": 1879,
      "Ġcontract": 1880,
      "Ġmáº¥t": 1881,
      "ON": 1882,
      "Ġmet": 1883,
      "ĠÄĳáº¡o": 1884,
      "Ġapplic": 1885,
      "arch": 1886,
      "ody": 1887,
      "Ġsame": 1888,
      "á»Ńi": 1889,
      "TT": 1890,
      "Ġchá»¯": 1891,
      "ĠCÃ¡c": 1892,
      "Ġmed": 1893,
      "ĠHo": 1894,
      "Ġnguá»ĵn": 1895,
      "Ġcáº£nh": 1896,
      "ividual": 1897,
      "Ġhiá»ĥm": 1898,
      "Ġbay": 1899,
      "Ġke": 1900,
      "ĠDe": 1901,
      "ĠDecree": 1902,
      "ives": 1903,
      "Ġtruyá»ģn": 1904,
      "Ġgáº§n": 1905,
      "Ġfeel": 1906,
      "ove": 1907,
      "Ġpos": 1908,
      "Ġlife": 1909,
      "Ġgiáº£m": 1910,
      "Ġcá»¥": 1911,
      "Ġtrang": 1912,
      "ĠngÃłnh": 1913,
      "na": 1914,
      "Ġcháº¿t": 1915,
      "Ġká»¹": 1916,
      "Ġlá»£i": 1917,
      "imes": 1918,
      "Ġchá»ĭu": 1919,
      "Ġgáº·p": 1920,
      "Báº¡n": 1921,
      "Ġcuá»ĳi": 1922,
      "Ġmá»Ĺi": 1923,
      "Ġnghiá»ĩm": 1924,
      "Ġgot": 1925,
      "Ġ,": 1926,
      "Ġcase": 1927,
      "ĠbÃłn": 1928,
      "ĠtÆ°á»Łng": 1929,
      "ĠvÃłi": 1930,
      "áº¡y": 1931,
      "Ġviol": 1932,
      "ave": 1933,
      "Má»Ļt": 1934,
      "Ġcapital": 1935,
      "uá»ĳc": 1936,
      "Ġdocu": 1937,
      "Ġop": 1938,
      "Ġnumber": 1939,
      "ustom": 1940,
      "ĠkhÃ¡ch": 1941,
      "ĠtÃŃch": 1942,
      "ense": 1943,
      "ĠxÃ©t": 1944,
      "ĠrÃµ": 1945,
      "Ġthose": 1946,
      "ĠthÃªm": 1947,
      "Ã²a": 1948,
      "Trong": 1949,
      "Ġindividual": 1950,
      "¯u": 1951,
      "Ġmuch": 1952,
      "Ġestablish": 1953,
      "ĠAl": 1954,
      "ling": 1955,
      "Ġmá»Ł": 1956,
      "Ġsch": 1957,
      "ĠAnd": 1958,
      "Ġdef": 1959,
      "Ġdays": 1960,
      "Ġgá»Ńi": 1961,
      "Ġissu": 1962,
      "Ġ199": 1963,
      "atch": 1964,
      "ool": 1965,
      "ChÃºng": 1966,
      "NH": 1967,
      "Ġmáº¯t": 1968,
      "Ġdanh": 1969,
      "Ġla": 1970,
      "ĠvÃ¹ng": 1971,
      "ention": 1972,
      "Ġbel": 1973,
      "xt": 1974,
      "ying": 1975,
      "ĠmÃ´": 1976,
      "Ġghi": 1977,
      "Ġstart": 1978,
      "ock": 1979,
      "ĠdÃłi": 1980,
      "Ġtráº»": 1981,
      "ĠLaw": 1982,
      "Ġlet": 1983,
      "Ġconc": 1984,
      "Kh": 1985,
      "Ġsá»©c": 1986,
      "ĠgÃ¢y": 1987,
      "ember": 1988,
      "ĠTrung": 1989,
      "Ġend": 1990,
      "Ġhá»¯u": 1991,
      "Ġadm": 1992,
      "Ġkháº£": 1993,
      "itions": 1994,
      "Ġdoes": 1995,
      "ĠPeople": 1996,
      "Ġconstruction": 1997,
      "ality": 1998,
      "Ġcháº³ng": 1999,
      "ider": 2000,
      "hip": 2001,
      "ases": 2002,
      "Ġel": 2003,
      "But": 2004,
      "ets": 2005,
      "ĠlÆ°u": 2006,
      "ĠÃŃt": 2007,
      "áºŃm": 2008,
      "ĠkhÃ³": 2009,
      "Ġdiffer": 2010,
      "ĠchÆ°Æ¡ng": 2011,
      "ĠkhÃŃ": 2012,
      "ars": 2013,
      "osed": 2014,
      "Ġgoods": 2015,
      "ĠGovernment": 2016,
      "Ġsomething": 2017,
      "Ġmáº¡nh": 2018,
      "thing": 2019,
      "ĠtÃłu": 2020,
      "Ġstud": 2021,
      "Ġpublic": 2022,
      "Ġmany": 2023,
      "ĠMin": 2024,
      "Ġprot": 2025,
      "Ġaround": 2026,
      "Ġdiá»ħn": 2027,
      "ys": 2028,
      "Ġhapp": 2029,
      "Ġelect": 2030,
      "Ġleg": 2031,
      "man": 2032,
      "Ġinf": 2033,
      "Ġfollowing": 2034,
      "Ġactivities": 2035,
      "Ġpur": 2036,
      "ict": 2037,
      "ĠLuáºŃt": 2038,
      "ination": 2039,
      "ĠCommitt": 2040,
      "Ġcháº¥p": 2041,
      "Ġfund": 2042,
      "ĠmÃ´i": 2043,
      "ĠHá»": 2044,
      "ĠdÃ¹": 2045,
      "Ġná»Ļp": 2046,
      "Ä©nh": 2047,
      "Ġmang": 2048,
      "iron": 2049,
      "ĠgiÃ¡m": 2050,
      "ircular": 2051,
      "We": 2052,
      "rol": 2053,
      "CÃ¡c": 2054,
      "Ġtiáº¿t": 2055,
      "Ġinspect": 2056,
      "Ġmáº¹": 2057,
      "Ã£i": 2058,
      "ined": 2059,
      "ĠQuá»ĳc": 2060,
      "cept": 2061,
      "Ġkhiáº¿n": 2062,
      "Ġfind": 2063,
      "Ġdá»¥c": 2064,
      "Ġprocess": 2065,
      "ration": 2066,
      "'d": 2067,
      "Ġtal": 2068,
      "Ġháº¯n": 2069,
      "ittle": 2070,
      "20": 2071,
      "Ġdi": 2072,
      "Ġvu": 2073,
      "Ġnay": 2074,
      "Ġlevel": 2075,
      "Ġworld": 2076,
      "ĠchÃŃ": 2077,
      "ĠAn": 2078,
      "Ġaccount": 2079,
      "anc": 2080,
      "Ġdevelopment": 2081,
      "ĠcÃ¢y": 2082,
      "Ġhá»Ĺ": 2083,
      "Ġcur": 2084,
      "ĠnhÃ³m": 2085,
      "Ġprom": 2086,
      "Ġsung": 2087,
      "gram": 2088,
      "Ġret": 2089,
      "ĠphÃ¹": 2090,
      "ĠvÃ´": 2091,
      "ĠcáºŃp": 2092,
      "ees": 2093,
      "Ġcond": 2094,
      "ĠEm": 2095,
      "ĠCircular": 2096,
      "NhÆ°ng": 2097,
      "inc": 2098,
      "Ġorder": 2099,
      "Ġcertific": 2100,
      "Ġbiá»ĥn": 2101,
      "att": 2102,
      "ĠKhÃ´ng": 2103,
      "ulation": 2104,
      "Ġrequire": 2105,
      "Ġminh": 2106,
      "Ġstand": 2107,
      "Ġstill": 2108,
      "±a": 2109,
      "Ġchild": 2110,
      "ness": 2111,
      "ene": 2112,
      "ĠÄĳÃ³ng": 2113,
      "ize": 2114,
      "ĠÄĳÃ¬nh": 2115,
      "ĠAm": 2116,
      "ĠtÃŃn": 2117,
      "Ġnever": 2118,
      "Ġcor": 2119,
      "ĠÄĳáº¥u": 2120,
      "Anh": 2121,
      "Ġcle": 2122,
      "ĠnghiÃªn": 2123,
      ".-": 2124,
      "Ġlist": 2125,
      "Ġcomple": 2126,
      "Ġxáº£y": 2127,
      "eneral": 2128,
      "Ġhá»Ļ": 2129,
      "Há»": 2130,
      "ĠbÃłi": 2131,
      "ĠthÆ°": 2132,
      "az": 2133,
      "bers": 2134,
      "artment": 2135,
      "Ġreally": 2136,
      "Ġexpl": 2137,
      "ĠchÃº": 2138,
      "Ġsl": 2139,
      "ÃĢ": 2140,
      "Ġmark": 2141,
      "Ġrespons": 2142,
      "Ġthings": 2143,
      "Ġviáº¿t": 2144,
      "ĠThá»§": 2145,
      "ĠchÆ¡i": 2146,
      "Ġkhoa": 2147,
      "iod": 2148,
      "ared": 2149,
      "Ġtell": 2150,
      "Ġimplementation": 2151,
      "Ġcome": 2152,
      "ral": 2153,
      "ĠHá»Ļi": 2154,
      "Ġwithin": 2155,
      "ages": 2156,
      "Ġdidn": 2157,
      "ug": 2158,
      "ics": 2159,
      "riend": 2160,
      "Ġprovid": 2161,
      "abor": 2162,
      "ĠthÃ´i": 2163,
      "Ġresult": 2164,
      "ĠUn": 2165,
      "Ġdisc": 2166,
      "Ġrele": 2167,
      "Ġ13": 2168,
      "ĠhÆ°á»Łng": 2169,
      "ĠbÃ©": 2170,
      "ines": 2171,
      "ady": 2172,
      "Ġhá»ĵi": 2173,
      "á»¥": 2174,
      "roup": 2175,
      "ĠKho": 2176,
      "Ġlittle": 2177,
      "Ġed": 2178,
      "Ġthree": 2179,
      "Ġrequest": 2180,
      "ner": 2181,
      "ĠÄĳáº§y": 2182,
      "ĠÄĳá»Ļi": 2183,
      "ork": 2184,
      "Ġext": 2185,
      "ards": 2186,
      "Ġ14": 2187,
      "Ġeffect": 2188,
      "ĠthuáºŃn": 2189,
      "ned": 2190,
      "Ġmod": 2191,
      "Ġduy": 2192,
      "ĠÄĳÃ´": 2193,
      "oh": 2194,
      "viron": 2195,
      "Ġmonth": 2196,
      "Ġwr": 2197,
      "ake": 2198,
      "á»¥c": 2199,
      "ina": 2200,
      "arm": 2201,
      "ants": 2202,
      "ĠmÃłu": 2203,
      "Ġchung": 2204,
      "Ġ16": 2205,
      "iving": 2206,
      "Ġyáº¿u": 2207,
      "iÃªng": 2208,
      "iáº¿m": 2209,
      "Ġlocal": 2210,
      "ĠÄĳáº¥y": 2211,
      "ĠtrÃ¡i": 2212,
      "Ġann": 2213,
      "ology": 2214,
      "Ġdr": 2215,
      "ĠDep": 2216,
      "ĠMinister": 2217,
      "vironment": 2218,
      "ince": 2219,
      "Ġlá»ĭch": 2220,
      "ional": 2221,
      "ĠlÃ£nh": 2222,
      "ĠÄĳá»Ŀi": 2223,
      "ves": 2224,
      "Ġname": 2225,
      "ĠPr": 2226,
      "Ġtoo": 2227,
      "Ġbro": 2228,
      "Ġperform": 2229,
      "Ġfound": 2230,
      "Ġ17": 2231,
      "Ġmeet": 2232,
      "Ġvá»«a": 2233,
      "Ġtuá»ķi": 2234,
      "ivers": 2235,
      "Ġservices": 2236,
      "Ġear": 2237,
      "ĠGiáº¥y": 2238,
      "Ġpoint": 2239,
      "Ġput": 2240,
      "Ã¢ng": 2241,
      "Ġpartic": 2242,
      "Ġháº£i": 2243,
      "Ġprogram": 2244,
      "áº·ng": 2245,
      "CÃ³": 2246,
      "Ġbiá»ĥu": 2247,
      "Ġwhile": 2248,
      "Ġsaf": 2249,
      "ten": 2250,
      "ook": 2251,
      "be": 2252,
      "ience": 2253,
      "Ġworking": 2254,
      "ash": 2255,
      "Ġprev": 2256,
      "ĠthuÃª": 2257,
      "Ġcustom": 2258,
      "ĠbÆ°á»Ľc": 2259,
      "Ġ01": 2260,
      "Ġnghá»ģ": 2261,
      "ex": 2262,
      "Ġtinh": 2263,
      "Ġperiod": 2264,
      "ounc": 2265,
      "omic": 2266,
      "ute": 2267,
      "Æ°Æ¡i": 2268,
      "Ġtrá»«": 2269,
      "á»·": 2270,
      "Ġadministr": 2271,
      "ins": 2272,
      "ĠtrÃ¬": 2273,
      "Ġquay": 2274,
      "Ġcommun": 2275,
      "ĠIf": 2276,
      "ĠAr": 2277,
      "Ġsmall": 2278,
      "Ġdocuments": 2279,
      "á»ī": 2280,
      "Ġbuild": 2281,
      "ĠÄĳá»©ng": 2282,
      "ĠSh": 2283,
      "Ġshow": 2284,
      "Ġnhá»Ľ": 2285,
      "Ġchá»ĳng": 2286,
      "Ġagainst": 2287,
      "Ġcá»Ļng": 2288,
      "ĠII": 2289,
      "ading": 2290,
      "ĠsoÃ¡t": 2291,
      "NÃ³": 2292,
      "Ġpháº£n": 2293,
      "Ġprof": 2294,
      "Ġmem": 2295,
      "Ġpower": 2296,
      "ism": 2297,
      "Ġhum": 2298,
      "ĠWe": 2299,
      "Ġmáº«u": 2300,
      "ending": 2301,
      "Ġopen": 2302,
      "Ġcre": 2303,
      "ĠÄĳa": 2304,
      "Ġser": 2305,
      "ĠCÃ³": 2306,
      "ĠLe": 2307,
      "Ġconsider": 2308,
      "Ġexper": 2309,
      "ĠhoÃ¡": 2310,
      "Ġplace": 2311,
      "Ġsá»Ńa": 2312,
      "Ġngoáº¡i": 2313,
      "redit": 2314,
      "Ġhouse": 2315,
      "Ġanother": 2316,
      "ĠTÃłi": 2317,
      "Ġfam": 2318,
      "ĠAs": 2319,
      "ton": 2320,
      "Ġváº»": 2321,
      "illion": 2322,
      "Ġmain": 2323,
      "Ġ25": 2324,
      "Ġindividuals": 2325,
      "Ġsim": 2326,
      "Ġláº½": 2327,
      "ĠluÃ´n": 2328,
      "Ġcháº¯c": 2329,
      "á»Ńa": 2330,
      "ĠÄĳÃ¡ng": 2331,
      "Ġsecur": 2332,
      "duc": 2333,
      "Ġmight": 2334,
      "ources": 2335,
      "Ġphá»ĳi": 2336,
      "Ġwithout": 2337,
      "¡ng": 2338,
      "Ġey": 2339,
      "Ġcompany": 2340,
      "To": 2341,
      "Ġgl": 2342,
      "arry": 2343,
      "ploy": 2344,
      "á»ĵng": 2345,
      "Khi": 2346,
      "ĠphÃª": 2347,
      "Ġenterprises": 2348,
      "Ġtriá»ĩu": 2349,
      "ax": 2350,
      "Ġintern": 2351,
      "Ġproced": 2352,
      "Ġinterest": 2353,
      "iew": 2354,
      "Ġreal": 2355,
      "Ġnghi": 2356,
      "ĠNhÆ°ng": 2357,
      "á»±": 2358,
      "erg": 2359,
      "Ġnhanh": 2360,
      "ĵn": 2361,
      "ĠtrÃ²": 2362,
      "ĠBut": 2363,
      "Ã¨m": 2364,
      "Ġtiá»ĩn": 2365,
      "âĢ¦âĢ¦âĢ¦âĢ¦": 2366,
      "\\\\": 2367,
      "Ġfriend": 2368,
      "ĠShe": 2369,
      "Ġplay": 2370,
      "Æ°á»£t": 2371,
      "ĠNew": 2372,
      "Ġsk": 2373,
      "Ġcollect": 2374,
      "Ġviá»ĩn": 2375,
      "Ġnam": 2376,
      "Ġhealth": 2377,
      "oney": 2378,
      "Ġaway": 2379,
      "Ġduring": 2380,
      "Ġspecial": 2381,
      "Ġcompetent": 2382,
      "Ġservice": 2383,
      "Ãģ": 2384,
      "Ġspecified": 2385,
      "Ã´m": 2386,
      "Ġproper": 2387,
      "Ġprojects": 2388,
      "urance": 2389,
      "ĠChá»§": 2390,
      "Ġnational": 2391,
      "ĠFor": 2392,
      "Ġrecord": 2393,
      "augh": 2394,
      "Ġkeep": 2395,
      "Ġfull": 2396,
      "ĠTrÆ°á»Ŀng": 2397,
      "ES": 2398,
      "ĠBan": 2399,
      "ission": 2400,
      "ĠgÃ³": 2401,
      "Ġexam": 2402,
      ");": 2403,
      "ĠkÃ©": 2404,
      "ĠOF": 2405,
      "ĠTrong": 2406,
      "Ġhy": 2407,
      "Ġdifferent": 2408,
      "Ġnat": 2409,
      "Ġthought": 2410,
      "áº¡p": 2411,
      "Ġregist": 2412,
      "ĠÄĳoáº¡n": 2413,
      "Ġadv": 2414,
      "Ġtháº§n": 2415,
      "Ġprovisions": 2416,
      "ĠcÄĥn": 2417,
      "anch": 2418,
      "ER": 2419,
      "ĠThá»": 2420,
      "Ġmeas": 2421,
      "KhÃ´ng": 2422,
      "Ġ^": 2423,
      "Ġdá»ħ": 2424,
      "Ġterm": 2425,
      "Ġcr": 2426,
      "Ġsupport": 2427,
      "dd": 2428,
      "Ġkáº»": 2429,
      "ĠkÃª": 2430,
      "Ġbre": 2431,
      "inal": 2432,
      "Ġamount": 2433,
      "ĵng": 2434,
      "Ġmar": 2435,
      "ĠchÃ¢n": 2436,
      "Ġref": 2437,
      "val": 2438,
      "ĠriÃªng": 2439,
      "Ġdá»¯": 2440,
      "ĠOr": 2441,
      "Ġgroup": 2442,
      "Ġbas": 2443,
      "Ġmáº¡ng": 2444,
      "Ġ100": 2445,
      "udget": 2446,
      "Ph": 2447,
      "¦y": 2448,
      "resent": 2449,
      "ĠÄĳá»ĳc": 2450,
      "Ġold": 2451,
      "ĠcÆ°": 2452,
      "ĠÄĳÃ¡p": 2453,
      "Ġlast": 2454,
      "Ġecon": 2455,
      "Ġgive": 2456,
      "li": 2457,
      "utions": 2458,
      "Ġnáº±m": 2459,
      "Ġstr": 2460,
      "ĠTá»ķng": 2461,
      "ibility": 2462,
      "Ġduyá»ĩt": 2463,
      "Ġgiáº£": 2464,
      "Ġunt": 2465,
      "Ġarea": 2466,
      "Ġmeans": 2467,
      "ways": 2468,
      "Ìĥ": 2469,
      "Ãłm": 2470,
      "ross": 2471,
      "TION": 2472,
      "Iá»": 2473,
      "omp": 2474,
      "ilities": 2475,
      "gg": 2476,
      "10": 2477,
      "kes": 2478,
      "Ġturn": 2479,
      "ĠÄĳáº¡t": 2480,
      "ĵi": 2481,
      "Ġtá»ĭch": 2482,
      "ĠNgÃ¢n": 2483,
      "Ġschool": 2484,
      "inance": 2485,
      "ĠnÃ´ng": 2486,
      "................": 2487,
      "Ġoffic": 2488,
      "ĠluáºŃn": 2489,
      "Ġapplication": 2490,
      "ted": 2491,
      "ived": 2492,
      "Ġinstit": 2493,
      "EN": 2494,
      "Ġtháº§u": 2495,
      "Ġthing": 2496,
      "Ġphim": 2497,
      "Ġxa": 2498,
      "Ġsang": 2499,
      "Ġworks": 2500,
      "Ġá»¦y": 2501,
      "Ġchá»©": 2502,
      "Ġgover": 2503,
      "Ġoperation": 2504,
      "Ġtáº£i": 2505,
      "áº¿p": 2506,
      "Ġindust": 2507,
      "Ġdecision": 2508,
      "iation": 2509,
      "Ġtá»ĳ": 2510,
      "ries": 2511,
      "Ġtráº¡ng": 2512,
      "Ġsuy": 2513,
      "orn": 2514,
      "Ġbig": 2515,
      "Ġmáº¡i": 2516,
      "Ġproduction": 2517,
      "Ġrá»Ļng": 2518,
      "199": 2519,
      "Ġconf": 2520,
      "ĠÄĲá»ĳi": 2521,
      "áº¹p": 2522,
      "Ġproducts": 2523,
      "Ġz": 2524,
      "Ġtraining": 2525,
      "level": 2526,
      "por": 2527,
      "Ġgh": 2528,
      "Ġgreat": 2529,
      "Ġenvironment": 2530,
      "Ġlar": 2531,
      "Ġná»ķi": 2532,
      "Ġdesign": 2533,
      "pped": 2534,
      "ption": 2535,
      "Ġháº¡": 2536,
      "Ġ).": 2537,
      "Ġconditions": 2538,
      "ĠIs": 2539,
      "itten": 2540,
      "Ġsecond": 2541,
      "Ġfun": 2542,
      "Ġrun": 2543,
      "Ġfew": 2544,
      "ÃĶng": 2545,
      "ĠmÃ¹": 2546,
      "Ġrest": 2547,
      "ĠÄĳá»Ļc": 2548,
      "ety": 2549,
      "ĠgÃ¡i": 2550,
      "Ġcare": 2551,
      "Ġthá»Ń": 2552,
      "mber": 2553,
      "Ġmean": 2554,
      "Ãºi": 2555,
      "Ġchá»īnh": 2556,
      "ĠÄĳoÃłn": 2557,
      "Ġaccordance": 2558,
      "vers": 2559,
      "ĠlÃ²ng": 2560,
      "Ġtá»·": 2561,
      "They": 2562,
      "OR": 2563,
      "Ġsuper": 2564,
      "eric": 2565,
      "Ġvalue": 2566,
      "ium": 2567,
      "Ġbudget": 2568,
      "Ġtreat": 2569,
      "Ġcal": 2570,
      "Ġmater": 2571,
      "ield": 2572,
      "Ġsubm": 2573,
      "Æ¯": 2574,
      "Ġfac": 2575,
      "Ġsocial": 2576,
      "Ġnhu": 2577,
      "Ġnon": 2578,
      "áº©y": 2579,
      "Ġregistration": 2580,
      "ĠthÃ¡c": 2581,
      "ĠInd": 2582,
      "ĠloÃłi": 2583,
      "Ġincluding": 2584,
      "ms": 2585,
      "Ġprop": 2586,
      "Ġhome": 2587,
      "Ġless": 2588,
      "Ġareas": 2589,
      "mb": 2590,
      "ify": 2591,
      "med": 2592,
      "Ġda": 2593,
      "Ġhaving": 2594,
      "Ġcontrol": 2595,
      "ĠtÆ°á»Ľng": 2596,
      "ĠlÃ¢u": 2597,
      "Ġfact": 2598,
      "Ġbook": 2599,
      "Ġtoget": 2600,
      "ason": 2601,
      "Ġtogether": 2602,
      "Ġá»§": 2603,
      "Ġlic": 2604,
      "Ġide": 2605,
      "Ġtest": 2606,
      "Ġ50": 2607,
      "ĠÃ¢m": 2608,
      "Ġpo": 2609,
      "Ġorganization": 2610,
      "ancial": 2611,
      "Ġuntil": 2612,
      "Ġngá»ĵi": 2613,
      "Ġchá»Ĺ": 2614,
      "Ġbody": 2615,
      "Ġcour": 2616,
      "ĠlÄ©nh": 2617,
      "Ġvay": 2618,
      "Ġpháº¡t": 2619,
      "iá»ĩp": 2620,
      "Ġmen": 2621,
      "Ġmarket": 2622,
      "Ġxin": 2623,
      "Ġallow": 2624,
      "ĠZ": 2625,
      "ĠkÃ¨m": 2626,
      "ĠNational": 2627,
      "ĠÄĳÃ´i": 2628,
      "Ġwom": 2629,
      "Ġprocedures": 2630,
      "ists": 2631,
      "of": 2632,
      "ĠthÃºc": 2633,
      "Ġphiáº¿u": 2634,
      "Ã³n": 2635,
      "Ġcáº¥u": 2636,
      "There": 2637,
      "Ġcredit": 2638,
      "Ġlim": 2639,
      "AN": 2640,
      "Ġcáº¡nh": 2641,
      "She": 2642,
      "Ġmaterial": 2643,
      "Ġdecl": 2644,
      "Ġcalled": 2645,
      "Ġsit": 2646,
      "Ġdáº¡ng": 2647,
      "Ġkill": 2648,
      "Ġquá»¹": 2649,
      "ĠNgÆ°á»Ŀi": 2650,
      "Ġrepresent": 2651,
      "Ġkiáº¿m": 2652,
      "Ġusing": 2653,
      "ained": 2654,
      "NÄĲ": 2655,
      "ĠbiÃªn": 2656,
      "Ã£n": 2657,
      "Ġtransfer": 2658,
      "the": 2659,
      "ıa": 2660,
      "Ġboth": 2661,
      "ĠMá»¹": 2662,
      "Ġword": 2663,
      "Ġlot": 2664,
      "Ġmoney": 2665,
      "idd": 2666,
      "ĠDo": 2667,
      "Ġ24": 2668,
      "Sau": 2669,
      "Ġmáº·c": 2670,
      "Ġquanh": 2671,
      "Ġwhy": 2672,
      "uÃ´i": 2673,
      "ains": 2674,
      "Ġháº¡i": 2675,
      "ĠVND": 2676,
      "On": 2677,
      "Ġmá»ĳi": 2678,
      "Ġpat": 2679,
      "Ġtas": 2680,
      "ĠcÆ°á»Ŀi": 2681,
      "oper": 2682,
      "Ġchá»¯a": 2683,
      "ĠÄĳau": 2684,
      "ification": 2685,
      "Ġpolic": 2686,
      "sp": 2687,
      "Ġcháº¡y": 2688,
      "ata": 2689,
      "ĠcÃłng": 2690,
      "Ġsol": 2691,
      "less": 2692,
      "Ġav": 2693,
      "ĠbÃ¡c": 2694,
      "Ġkia": 2695,
      "ĠSp": 2696,
      "Ġlá»Ĺi": 2697,
      "Ġlead": 2698,
      "ĠDepartment": 2699,
      "ĠÄĳÃłn": 2700,
      "Ġpass": 2701,
      "Ġcost": 2702,
      "ĠÄĳÃło": 2703,
      "Ġkind": 2704,
      "uation": 2705,
      "Ġproble": 2706,
      "day": 2707,
      "ried": 2708,
      "Ġtuáº§n": 2709,
      "Ġsuáº¥t": 2710,
      "Ġbelie": 2711,
      "Ġens": 2712,
      "Ġemploy": 2713,
      "ik": 2714,
      "ĠÆ°Æ¡ng": 2715,
      "Ġcame": 2716,
      "Ġnext": 2717,
      "rict": 2718,
      "ÄĲá»": 2719,
      "ĠQuyáº¿t": 2720,
      "Ġair": 2721,
      "Ġbiá»ĩn": 2722,
      "ret": 2723,
      "rent": 2724,
      "ĠCÆ¡": 2725,
      "ĠVÃł": 2726,
      "Ġexport": 2727,
      "Ġthá»§y": 2728,
      "Ġchia": 2729,
      "ĠTá»": 2730,
      "Ġleast": 2731,
      "ĠthÃº": 2732,
      "ately": 2733,
      "Ġdáº¥u": 2734,
      "Ġleft": 2735,
      "ern": 2736,
      "Ġvá»įng": 2737,
      "outh": 2738,
      "ically": 2739,
      "Ġsubject": 2740,
      "For": 2741,
      "ization": 2742,
      "esp": 2743,
      "ency": 2744,
      "Ġthuyáº¿t": 2745,
      "Ġbeh": 2746,
      "Ġsure": 2747,
      "ĠWhat": 2748,
      "Ġquality": 2749,
      "Ġtá»Ŀ": 2750,
      "ĠChÃºng": 2751,
      "Ġwritten": 2752,
      "Ġdoss": 2753,
      "Ġinspection": 2754,
      "ĠVá»": 2755,
      "Ġadministrative": 2756,
      "Ġpop": 2757,
      "ĠMan": 2758,
      "Ġperm": 2759,
      "Ġpract": 2760,
      "ĠThis": 2761,
      "ĠdÃłnh": 2762,
      "Ġgiáº¿t": 2763,
      "Ġfinancial": 2764,
      "ones": 2765,
      "Ġdu": 2766,
      "ended": 2767,
      "Ġpayment": 2768,
      "ĠKhoáº£n": 2769,
      "ĠÄĳÃ´ng": 2770,
      "ĠsÆ°": 2771,
      "stand": 2772,
      "Ġhappen": 2773,
      "elf": 2774,
      "Ġcases": 2775,
      "Ġlater": 2776,
      "ĠgiÃ¡c": 2777,
      "áº§ng": 2778,
      "ever": 2779,
      "ept": 2780,
      "rl": 2781,
      "áºµ": 2782,
      "Ġeduc": 2783,
      "ĠPoint": 2784,
      "Ġtrai": 2785,
      "Ġinsurance": 2786,
      "Ġsw": 2787,
      "Ġbetter": 2788,
      "Ġsafety": 2789,
      "Ġtáº¡m": 2790,
      "Ġhu": 2791,
      "ĠvÃ²ng": 2792,
      "Ġocc": 2793,
      "Ġfood": 2794,
      "ĠEn": 2795,
      "ĠApp": 2796,
      "Ġlear": 2797,
      "Ġaff": 2798,
      "Ġtá»©c": 2799,
      "ĠchÃºt": 2800,
      "Ġbranch": 2801,
      "ush": 2802,
      "Ġsai": 2803,
      "ially": 2804,
      "Ġdeterm": 2805,
      "ĠbÃ³ng": 2806,
      "aring": 2807,
      "Ġtá»ĩ": 2808,
      "Ġchildren": 2809,
      "ĠÃ¡o": 2810,
      "Ġve": 2811,
      "ĠMar": 2812,
      "ffic": 2813,
      "Ġtem": 2814,
      "Ġpar": 2815,
      "Ġchange": 2816,
      "Ġunits": 2817,
      "Ġguid": 2818,
      "Ġmov": 2819,
      "Ġagency": 2820,
      "Ġrá»«ng": 2821,
      "CÃ´": 2822,
      "Nhá»¯ng": 2823,
      "Ġ22": 2824,
      "raw": 2825,
      "Ġclass": 2826,
      "Ġforest": 2827,
      "Ġsett": 2828,
      "Ġtáº§ng": 2829,
      "Ġdate": 2830,
      "uss": 2831,
      "ences": 2832,
      "Ġdated": 2833,
      "Ġtot": 2834,
      "utes": 2835,
      "ĠkhoÃ¡n": 2836,
      "Ġposs": 2837,
      "Ġgáº¯ng": 2838,
      "Ġwar": 2839,
      "Ġfil": 2840,
      "ĠAd": 2841,
      "Ġcha": 2842,
      "atter": 2843,
      "Ġside": 2844,
      "Ġasked": 2845,
      "Ġ198": 2846,
      "Ġimportant": 2847,
      "vant": 2848,
      "Ġhard": 2849,
      "Ġdáº§u": 2850,
      "Ġgrant": 2851,
      "ĠReg": 2852,
      "ample": 2853,
      "ction": 2854,
      "Ġseem": 2855,
      "ĠFr": 2856,
      "Ġná»£": 2857,
      "ĠNáº¿u": 2858,
      "ĠQuy": 2859,
      "Ġprovincial": 2860,
      "Ġcity": 2861,
      "Ġcountry": 2862,
      "á»©": 2863,
      "Ġtre": 2864,
      "Ġface": 2865,
      "Ġvai": 2866,
      "Ġprice": 2867,
      "11": 2868,
      "Ġtuyá»ĩt": 2869,
      "ĠPl": 2870,
      "Ġká»·": 2871,
      "Ġviolations": 2872,
      "St": 2873,
      "Ġnec": 2874,
      "ury": 2875,
      "ĠtÃ¡i": 2876,
      "Ġbest": 2877,
      "Ġcá»±c": 2878,
      "áºµn": 2879,
      "ĠEx": 2880,
      "rug": 2881,
      "ipment": 2882,
      "Ġtimes": 2883,
      "ĠxÃºc": 2884,
      "Ġmanag": 2885,
      "Ġoffice": 2886,
      "Ġvui": 2887,
      "Ġlove": 2888,
      "Ġplans": 2889,
      "Ġbuá»Ļc": 2890,
      "ann": 2891,
      "Ġfail": 2892,
      "Ġmembers": 2893,
      "Ġcourse": 2894,
      "Ġcontin": 2895,
      "gin": 2896,
      "itted": 2897,
      "Ġprovide": 2898,
      "Ġdom": 2899,
      "ured": 2900,
      "Ġenough": 2901,
      "to": 2902,
      "Ġincre": 2903,
      "Ġdem": 2904,
      "Ġcáº£i": 2905,
      "ĠphÃºt": 2906,
      "aster": 2907,
      "ĠSc": 2908,
      "Ġalways": 2909,
      "Ġwent": 2910,
      "Ġorig": 2911,
      "Ġbá»©c": 2912,
      "Ġsat": 2913,
      "ator": 2914,
      "alf": 2915,
      "Ġquest": 2916,
      "rop": 2917,
      "Ġlá»ĩnh": 2918,
      "ĠFinance": 2919,
      "ouncil": 2920,
      "Ġsince": 2921,
      "Ġtook": 2922,
      "Ġmaking": 2923,
      "Ġauthority": 2924,
      "Ġenc": 2925,
      "Ġcou": 2926,
      "Ġtold": 2927,
      "Ã£o": 2928,
      "ĠCommittee": 2929,
      "Ġhuman": 2930,
      "á»³": 2931,
      "Ġdel": 2932,
      "Ġngá»§": 2933,
      "Ġdoing": 2934,
      "What": 2935,
      "Ġhour": 2936,
      "Ġtá»ĵn": 2937,
      "Ġrelated": 2938,
      "ĠkÃ©o": 2939,
      "ĠmáºŃt": 2940,
      "ances": 2941,
      "ĠÄĳáº£o": 2942,
      "ĠkÃŃch": 2943,
      "Ġlá»¥c": 2944,
      "ĠÃ¡nh": 2945,
      "onna": 2946,
      "ĠBo": 2947,
      "Ġhold": 2948,
      "Ġroom": 2949,
      "hod": 2950,
      "Ġur": 2951,
      "Ġsever": 2952,
      "Ġlegal": 2953,
      "ple": 2954,
      "Ġwee": 2955,
      "When": 2956,
      "HÃ£y": 2957,
      "Ġeyes": 2958,
      "thers": 2959,
      "Truy": 2960,
      "Ġrev": 2961,
      "Ãºa": 2962,
      "Ġnight": 2963,
      "Ġrate": 2964,
      "Ã¨o": 2965,
      "Ġsá»£": 2966,
      "Ġmillion": 2967,
      "Ġnháº¡c": 2968,
      "here": 2969,
      "Ġ%": 2970,
      "Ġtáº¥n": 2971,
      "ĠnuÃ´i": 2972,
      "uck": 2973,
      "ĠÃŃch": 2974,
      "ering": 2975,
      "used": 2976,
      "Ġtá»Ļi": 2977,
      "ready": 2978,
      "bo": 2979,
      "ĠVietnamese": 2980,
      "Ġhuy": 2981,
      "Ġtai": 2982,
      "Ġactually": 2983,
      "Ġenterprise": 2984,
      "for": 2985,
      "Ġá»ķ": 2986,
      "ĠBe": 2987,
      "Ġsal": 2988,
      "Ġsáºµn": 2989,
      "une": 2990,
      "ken": 2991,
      "Ġâ": 2992,
      "Ġfamily": 2993,
      "Ġmom": 2994,
      "Ġchang": 2995,
      "ÄĲÃ¢y": 2996,
      "Ġmonths": 2997,
      "Ġtáº¯c": 2998,
      "atic": 2999,
      "ulture": 3000,
      "Ġtransport": 3001,
      "AT": 3002,
      "Ġmind": 3003,
      "ley": 3004,
      "Ġlá»Ľp": 3005,
      "Ġequipment": 3006,
      "Ġrelevant": 3007,
      "Ġprofess": 3008,
      "erc": 3009,
      "Ġgovernment": 3010,
      "á»©c": 3011,
      "Ġlang": 3012,
      "Ġfour": 3013,
      "Ġyourself": 3014,
      "How": 3015,
      "ait": 3016,
      "ck": 3017,
      "ĠsÃ¢u": 3018,
      "ĠkhÄĥn": 3019,
      "ids": 3020,
      "Ġdeb": 3021,
      "Ġclear": 3022,
      "by": 3023,
      "ĠvÅ©": 3024,
      "ĠThey": 3025,
      "Ġalready": 3026,
      "Ġeconomic": 3027,
      "ĠÄĳÃŃch": 3028,
      "ĠCÃ´": 3029,
      "ĠSo": 3030,
      "ructure": 3031,
      "Ġcop": 3032,
      "TC": 3033,
      "ĠÄĳÃ¡": 3034,
      "Ġ197": 3035,
      "enses": 3036,
      "cent": 3037,
      "vest": 3038,
      "Ġaud": 3039,
      "ĠTe": 3040,
      "Ġeng": 3041,
      "Ġpost": 3042,
      "Ġnháº±m": 3043,
      "me": 3044,
      "Ġnhiá»ħ": 3045,
      "ĠMay": 3046,
      "Ġlá»±a": 3047,
      "ĠhÃ²a": 3048,
      "Ġagree": 3049,
      "AL": 3050,
      "Ġsing": 3051,
      "Ġwal": 3052,
      "hold": 3053,
      "ĠtÃ¹": 3054,
      "Ġassess": 3055,
      "©t": 3056,
      "Ġever": 3057,
      "ĠÄĳÃªm": 3058,
      "Ġlight": 3059,
      "Do": 3060,
      "Ġeas": 3061,
      "raph": 3062,
      "Ġreturn": 3063,
      "ĠTR": 3064,
      "Ġsomeone": 3065,
      "airs": 3066,
      "Ġthoáº¡i": 3067,
      "ĠÃ´": 3068,
      "ĠmÃ´n": 3069,
      "fact": 3070,
      "Ġsend": 3071,
      "ird": 3072,
      "12": 3073,
      "ĠCar": 3074,
      "ably": 3075,
      "ohn": 3076,
      "Ġmil": 3077,
      "itch": 3078,
      "ĠgÃ³p": 3079,
      "ĠÆ°u": 3080,
      "Ġthiá»ĩn": 3081,
      "ĠÄĳáº¹p": 3082,
      "ĠMá»Ļt": 3083,
      "raft": 3084,
      "ĠAmeric": 3085,
      "Ġcustoms": 3086,
      "iver": 3087,
      "Ġsent": 3088,
      "Ġpap": 3089,
      "ĠvÆ°á»£t": 3090,
      "Ġwon": 3091,
      "áº¢": 3092,
      "Ġmiá»ħn": 3093,
      "ĠchÃ¡u": 3094,
      "ĠChi": 3095,
      "ump": 3096,
      "ĠÄĳá»©a": 3097,
      "Ġanything": 3098,
      "Ġcertificate": 3099,
      "bs": 3100,
      "Ġcháº¯n": 3101,
      "Ġrese": 3102,
      "ĠKhi": 3103,
      "Ġtalk": 3104,
      "aid": 3105,
      "par": 3106,
      "Ġport": 3107,
      "Ġnguy": 3108,
      "ĠhÆ¡i": 3109,
      "Ġmove": 3110,
      "Ġtháº³ng": 3111,
      "Ġfine": 3112,
      "aking": 3113,
      "let": 3114,
      "Ġris": 3115,
      "ĠSe": 3116,
      "Ġauthorities": 3117,
      "ĠIntern": 3118,
      "ĠTHE": 3119,
      "ATION": 3120,
      "ler": 3121,
      "Ġnáº¡n": 3122,
      "ĠAt": 3123,
      "ĠcÃ¡nh": 3124,
      "ĠÄĳoÃ¡n": 3125,
      "Ġtotal": 3126,
      "orth": 3127,
      "Ġuá»ĳng": 3128,
      "els": 3129,
      "Ġjob": 3130,
      "Ġcarry": 3131,
      "Ġtasks": 3132,
      "Ġ-": 3133,
      "ĠthÃ¡i": 3134,
      "ats": 3135,
      "Ġspe": 3136,
      "Ĥ¬": 3137,
      "Ġdone": 3138,
      "Ġ196": 3139,
      "ĠPrime": 3140,
      "ane": 3141,
      "ĠtrÃ¡nh": 3142,
      "ili": 3143,
      "ĠHoa": 3144,
      "Ġprotection": 3145,
      "Ġtrá»¥": 3146,
      "Ġláº¡c": 3147,
      "Ġvar": 3148,
      "ĠUS": 3149,
      "ĠÃĶng": 3150,
      "Ġinternational": 3151,
      "Ġ21": 3152,
      "Ġbank": 3153,
      "ior": 3154,
      "ĠCá»¥c": 3155,
      "Ġsá»ķ": 3156,
      "Ġ194": 3157,
      "Ġteam": 3158,
      "Ġsecurity": 3159,
      "IN": 3160,
      "ĠkhÃ¡m": 3161,
      "ently": 3162,
      "ĠBank": 3163,
      "Ġnhiá»ħm": 3164,
      "fic": 3165,
      "ĠNÃ³": 3166,
      "rial": 3167,
      "Ġcontents": 3168,
      "Ġdam": 3169,
      "Ġgonna": 3170,
      "Ġanim": 3171,
      "side": 3172,
      "ues": 3173,
      "ĠnÃ¢ng": 3174,
      "ott": 3175,
      "ows": 3176,
      "Ġstre": 3177,
      "That": 3178,
      "Ġassign": 3179,
      "ĠÆ°á»Ľc": 3180,
      "inate": 3181,
      "Ġphá»ķ": 3182,
      "Ġonce": 3183,
      "elt": 3184,
      "ĠdÆ°á»¡ng": 3185,
      "Ġrad": 3186,
      "ĠAg": 3187,
      "ĠDirect": 3188,
      "Ġproperty": 3189,
      "uro": 3190,
      "Ġable": 3191,
      "Ġcurrent": 3192,
      "Ġtry": 3193,
      "Æ°á»Ľi": 3194,
      "ached": 3195,
      "As": 3196,
      "Ġmáº¥y": 3197,
      "ĠAND": 3198,
      "Ġrequirements": 3199,
      "line": 3200,
      "Ġgirl": 3201,
      "ĠÄĲáº¡i": 3202,
      "Ġsoc": 3203,
      "Ġexc": 3204,
      "ĠThat": 3205,
      "ĠhÃ´m": 3206,
      "Ġvis": 3207,
      "reen": 3208,
      "ĠÄĳá»įc": 3209,
      "Ġchá»©a": 3210,
      "oss": 3211,
      "âĤ¬": 3212,
      "Ġlá»Ļ": 3213,
      "uty": 3214,
      "Ġunderstand": 3215,
      "ĠDecision": 3216,
      "Ġ=": 3217,
      "Ġná»ĳi": 3218,
      "ĠtráºŃn": 3219,
      "Ġgrow": 3220,
      "Ġngá»¯": 3221,
      "Ġred": 3222,
      "ĠxuyÃªn": 3223,
      "ume": 3224,
      "Ġbuá»ķi": 3225,
      "Ġtechnical": 3226,
      "vision": 3227,
      "Ġtuyáº¿n": 3228,
      "Ġcu": 3229,
      "Ġxáº¿p": 3230,
      "Ġcharge": 3231,
      "ĠCommittees": 3232,
      "Ġtháº¥t": 3233,
      "iá»ģm": 3234,
      "Ġresults": 3235,
      "Ġlabor": 3236,
      "Ġphi": 3237,
      "Ġ23": 3238,
      "ĠtrÃ´ng": 3239,
      "ĠquÃ½": 3240,
      "Ġtrá»Ŀi": 3241,
      "Ġfollows": 3242,
      "Ġmus": 3243,
      "Ġissued": 3244,
      "Ġcomplete": 3245,
      "Ġter": 3246,
      "Ġfather": 3247,
      "Ġprovided": 3248,
      "II": 3249,
      "ĠPhÃ¡p": 3250,
      "Ġdata": 3251,
      "co": 3252,
      "tr": 3253,
      "ĠháºŃu": 3254,
      "Ġfire": 3255,
      "Ġtop": 3256,
      "ĠCo": 3257,
      "Ġ28": 3258,
      "ively": 3259,
      "Ġgiai": 3260,
      "Ġexample": 3261,
      "Ġ2010": 3262,
      "ĠbÃ¢y": 3263,
      "ĠchÃłng": 3264,
      "arant": 3265,
      "ENT": 3266,
      "Ġthá»ıa": 3267,
      "ĠNG": 3268,
      "unic": 3269,
      "Ġupon": 3270,
      "Ġobject": 3271,
      "Ġdrug": 3272,
      "app": 3273,
      "áº¤": 3274,
      "Ġcooper": 3275,
      "uly": 3276,
      "ĠvÃłng": 3277,
      "oice": 3278,
      "ĠGeneral": 3279,
      "Ġná»ģn": 3280,
      "ĠCH": 3281,
      "Ġ31": 3282,
      "ips": 3283,
      "Ġapply": 3284,
      "ĠcÃ¢n": 3285,
      "ceed": 3286,
      "ological": 3287,
      "Ġmethod": 3288,
      "Ġtáº£": 3289,
      "VÃ¬": 3290,
      "Ġgeneral": 3291,
      "ideo": 3292,
      "Ġgiáº£n": 3293,
      "ges": 3294,
      "ĠngÄĥn": 3295,
      "ĠrÃłng": 3296,
      "ether": 3297,
      "Ġsaw": 3298,
      "ead": 3299,
      "Ġ$": 3300,
      "ĠkhÃ¡": 3301,
      "Ġconduct": 3302,
      "áº·n": 3303,
      "VÃło": 3304,
      "eb": 3305,
      "Ġhoa": 3306,
      "Ġtechnology": 3307,
      "ĠthiÃªn": 3308,
      "Ġkháº¯c": 3309,
      "ivil": 3310,
      "acy": 3311,
      "Ġplanning": 3312,
      "Ġtháº¥p": 3313,
      "ĠmÃ¡u": 3314,
      "Ġgá»ĳc": 3315,
      "Ġcompan": 3316,
      "Tuy": 3317,
      "VáºŃy": 3318,
      "lig": 3319,
      "Ġpain": 3320,
      "olution": 3321,
      "Ġresearch": 3322,
      "Ġbá»įn": 3323,
      "Ġspecific": 3324,
      "Ġpurch": 3325,
      "Ġfr": 3326,
      "Ġ2011": 3327,
      "Ġnecess": 3328,
      "Ġsáº¯c": 3329,
      "Ġfive": 3330,
      "Ġ27": 3331,
      "ulated": 3332,
      "Ġtháº£i": 3333,
      "Ġdoesn": 3334,
      "Well": 3335,
      "Ġbased": 3336,
      "Ġmedical": 3337,
      "50": 3338,
      "Now": 3339,
      "ban": 3340,
      "ĠSec": 3341,
      "Ġinvol": 3342,
      "Ġparticip": 3343,
      "Con": 3344,
      "Ġoften": 3345,
      "Ġphong": 3346,
      "EC": 3347,
      "Ġva": 3348,
      "ulg": 3349,
      "Ġ2015": 3350,
      "NÄĥm": 3351,
      "Ġgener": 3352,
      "Ġrefer": 3353,
      "Ã¨n": 3354,
      "Ġmeasures": 3355,
      "ĠÆ¡n": 3356,
      "Ġthin": 3357,
      "Ġnothing": 3358,
      "Ġalong": 3359,
      "Ġdetail": 3360,
      "Æ¯á»": 3361,
      "Ġcá»¥c": 3362,
      "eg": 3363,
      "lo": 3364,
      "ober": 3365,
      "Ġstat": 3366,
      "ĠViá»ĩc": 3367,
      "Ãµi": 3368,
      "Ġexec": 3369,
      "ÄĲÃ³": 3370,
      "Ġwhole": 3371,
      "Ġtháº£o": 3372,
      "ĠsÃ¢n": 3373,
      "Ġmor": 3374,
      "Ġtrying": 3375,
      "Ġjud": 3376,
      "Ġrá»Ŀi": 3377,
      "Iá»Ĩ": 3378,
      "Ġidea": 3379,
      "kh": 3380,
      "ĠmÃ£": 3381,
      "ode": 3382,
      "Ġcertain": 3383,
      "Ġlarge": 3384,
      "ĠhÃ´n": 3385,
      "Ġinstitutions": 3386,
      "Ġsáº¯p": 3387,
      "Ġbad": 3388,
      "ither": 3389,
      "Ġ2012": 3390,
      "NgÆ°á»Ŀi": 3391,
      "my": 3392,
      "ĠÃ¢": 3393,
      "Ġrights": 3394,
      "Ġensure": 3395,
      "rid": 3396,
      "Ġident": 3397,
      "Ġcuá»ĳn": 3398,
      "selves": 3399,
      "iers": 3400,
      "most": 3401,
      "ĠtuyÃªn": 3402,
      "Ġláº¯m": 3403,
      "Ġwatch": 3404,
      "ĠnhÃ¡nh": 3405,
      "Ġ40": 3406,
      "Ġassets": 3407,
      "Ġwanted": 3408,
      "Ġháº§u": 3409,
      "Ġbegan": 3410,
      "Ġknown": 3411,
      "Ġeverything": 3412,
      "oid": 3413,
      "á»«": 3414,
      "IC": 3415,
      "ĠlÆ°Æ¡ng": 3416,
      "Ġlooked": 3417,
      "Ġbuilding": 3418,
      "Ġtrad": 3419,
      "Ġngang": 3420,
      "Ġgiven": 3421,
      "Ġbá»ĵi": 3422,
      "ĠtháºŃm": 3423,
      "Ġphys": 3424,
      "Ġinclude": 3425,
      "Ġthiáº¿u": 3426,
      "itor": 3427,
      "Ġ\":": 3428,
      "ĠVÄĥn": 3429,
      "ability": 3430,
      "Ġcoi": 3431,
      "Ġcompanies": 3432,
      "IS": 3433,
      "la": 3434,
      "uce": 3435,
      "ĠtÃ³c": 3436,
      "Ġresponsibility": 3437,
      "Ġothers": 3438,
      "eck": 3439,
      "ger": 3440,
      "Ġkiá»ĥu": 3441,
      "ĠnÃłng": 3442,
      "ential": 3443,
      "Ġmaj": 3444,
      "sw": 3445,
      "arent": 3446,
      "ront": 3447,
      "ring": 3448,
      "Ġru": 3449,
      "ultural": 3450,
      "suant": 3451,
      "Ġtiá»ĥu": 3452,
      "ining": 3453,
      "ĠdÃ²ng": 3454,
      "ĠCan": 3455,
      "Ġste": 3456,
      "á»Ĺi": 3457,
      "ĠEd": 3458,
      "Ġlaws": 3459,
      "Ġcáº¯t": 3460,
      "Ġline": 3461,
      "ised": 3462,
      "ĠSu": 3463,
      "ĠSá»Ł": 3464,
      "Ġ2013": 3465,
      "Ġbecome": 3466,
      "Ġkhá»ıe": 3467,
      "Ġestablishment": 3468,
      "Ġcam": 3469,
      "ĠKá»³": 3470,
      "Ġrespect": 3471,
      "Ġminutes": 3472,
      "Ġindustrial": 3473,
      "ients": 3474,
      "Ġsect": 3475,
      "Ġfree": 3476,
      "ĠCouncil": 3477,
      "ĠJohn": 3478,
      "Há»į": 3479,
      "Ġgen": 3480,
      "ateg": 3481,
      "Ġsuá»ĳt": 3482,
      "Ġcáº£ng": 3483,
      "ief": 3484,
      "ney": 3485,
      "Ġelse": 3486,
      "son": 3487,
      "ĠdÃ¢y": 3488,
      "Ġshort": 3489,
      "Ġnear": 3490,
      "Ġpersons": 3491,
      "Ġbáº§u": 3492,
      "uses": 3493,
      "iáº¿p": 3494,
      "ccess": 3495,
      "Ġpurp": 3496,
      "Em": 3497,
      "ĠchÃ¡y": 3498,
      "iáº¿ng": 3499,
      "ĠBáº£n": 3500,
      "Ġ26": 3501,
      "hic": 3502,
      "ĠÄĳáº©y": 3503,
      "ĠlÃ¡": 3504,
      "Ġtoward": 3505,
      "itional": 3506,
      "ED": 3507,
      "Ġsong": 3508,
      "enn": 3509,
      "Ġconn": 3510,
      "just": 3511,
      "ĠRes": 3512,
      "Ġimpro": 3513,
      "Ġcommon": 3514,
      "incip": 3515,
      "Ġmoment": 3516,
      "An": 3517,
      "bum": 3518,
      "ising": 3519,
      "Ġdeal": 3520,
      "pr": 3521,
      "Ġsus": 3522,
      "Ġtráº£i": 3523,
      "Ġyet": 3524,
      "Ġtele": 3525,
      "ĠWhen": 3526,
      "náº¿u": 3527,
      "Ġcirc": 3528,
      "ames": 3529,
      "Ġask": 3530,
      "Ġdead": 3531,
      "ĠÃł": 3532,
      "Ġtim": 3533,
      "Ġhist": 3534,
      "ĠchÃ¢u": 3535,
      "Ġnatural": 3536,
      "ma": 3537,
      "Ġluyá»ĩn": 3538,
      "ĠQU": 3539,
      "Ġcentral": 3540,
      "Ġháº¡t": 3541,
      "Ġwrit": 3542,
      "eter": 3543,
      "itting": 3544,
      "Ġtreatment": 3545,
      "Ġ#": 3546,
      "Ġbuy": 3547,
      "Ġlai": 3548,
      "Ġreason": 3549,
      "Ġant": 3550,
      "ĠcháºŃm": 3551,
      "Ġpress": 3552,
      "Ġbelieve": 3553,
      "cy": 3554,
      "sue": 3555,
      "ĠAll": 3556,
      "Ġknew": 3557,
      "Ġbecame": 3558,
      "ercial": 3559,
      "ĠHarry": 3560,
      "order": 3561,
      "vÃł": 3562,
      "áº¾": 3563,
      "Ġquáº§n": 3564,
      "ĠChÃºa": 3565,
      "ogn": 3566,
      "Ġvehic": 3567,
      "ories": 3568,
      "ĠBl": 3569,
      "acter": 3570,
      "Ġstay": 3571,
      "Ġdecisions": 3572,
      "Ġgame": 3573,
      "Ġnháº¹": 3574,
      "ursuant": 3575,
      "ĠWor": 3576,
      "Ġcompl": 3577,
      "Ġdá»±a": 3578,
      "Ġeducation": 3579,
      "ĠtháºŃp": 3580,
      "Ġsays": 3581,
      "Ġsix": 3582,
      "Ġdest": 3583,
      "Ġseen": 3584,
      "Ġplac": 3585,
      "ĠmÃ¹a": 3586,
      "Ġlive": 3587,
      "ĠchÄĥm": 3588,
      "ĠCent": 3589,
      "Ġtá»Ľ": 3590,
      "ĠGu": 3591,
      "ĠRep": 3592,
      "Ġpresent": 3593,
      "work": 3594,
      "ıng": 3595,
      "ature": 3596,
      "ĠGr": 3597,
      "aps": 3598,
      "Ġá»§y": 3599,
      "§y": 3600,
      "ĠmÃły": 3601,
      "Ġtrá»¯": 3602,
      "Ġfield": 3603,
      "Ġpercent": 3604,
      "ware": 3605,
      "Ġart": 3606,
      "ĠngÃ´i": 3607,
      "ots": 3608,
      "Ġ60": 3609,
      "Ġblood": 3610,
      "Ġpolicies": 3611,
      "Ġseveral": 3612,
      "rist": 3613,
      "Ġmáº¯c": 3614,
      "ĠchÃ³": 3615,
      "Ġkhá»Łi": 3616,
      "Ġdeath": 3617,
      "Ġclose": 3618,
      "Ġbasis": 3619,
      "not": 3620,
      "Ġunit": 3621,
      "ĠnghiÃªm": 3622,
      "\\\\/": 3623,
      "Ġ+": 3624,
      "Ġtá»Ļc": 3625,
      "Ġyoung": 3626,
      "Ġ29": 3627,
      "Ġcontrib": 3628,
      "Ġestim": 3629,
      "ered": 3630,
      "Ġguy": 3631,
      "Ġhá»įp": 3632,
      "Ġroad": 3633,
      "Ġ02": 3634,
      "ĠthoÃ¡t": 3635,
      "Ġstudy": 3636,
      "Ġenvironmental": 3637,
      "Ġmaterials": 3638,
      "Ġbranches": 3639,
      "ING": 3640,
      "body": 3641,
      "tain": 3642,
      "Ľm": 3643,
      "ĠÄĳen": 3644,
      "Ġdecid": 3645,
      "Ġdev": 3646,
      "Ġleave": 3647,
      "MENT": 3648,
      "ĠÄĳÃ¡m": 3649,
      "Ġvol": 3650,
      "Al": 3651,
      "pro": 3652,
      "ĠniÃªn": 3653,
      "eah": 3654,
      "idence": 3655,
      "stit": 3656,
      "ĠHow": 3657,
      "ected": 3658,
      "ĠThere": 3659,
      "Ġresources": 3660,
      "aughter": 3661,
      "Ġbinh": 3662,
      "á»Ļn": 3663,
      "Ġchiáº¿u": 3664,
      "Ġelectric": 3665,
      "ficult": 3666,
      "Ġchiá»ģu": 3667,
      "atives": 3668,
      "ĠComp": 3669,
      "AR": 3670,
      "yl": 3671,
      "ĠbÄĥng": 3672,
      "Ġpe": 3673,
      "Ġkhá»ĳi": 3674,
      "ĠMr": 3675,
      "ished": 3676,
      "Ġscient": 3677,
      "Ġlooking": 3678,
      "30": 3679,
      "Ġfar": 3680,
      "ĠTÃ¢y": 3681,
      "Ġissue": 3682,
      "Ġcomply": 3683,
      "ĠNhá»¯ng": 3684,
      "Ġgáº¯n": 3685,
      "Ġtyp": 3686,
      "Ġ&": 3687,
      "ĠsÃ´ng": 3688,
      "Ġvideo": 3689,
      "Ġoil": 3690,
      "Ġchá»Ŀ": 3691,
      "cember": 3692,
      "ĠHáº£i": 3693,
      "\\/": 3694,
      "go": 3695,
      "Ġhalf": 3696,
      "Ġfight": 3697,
      "ĠphÃ³ng": 3698,
      "Ġnghá»ī": 3699,
      "Ġoblig": 3700,
      "Ġcalc": 3701,
      "15": 3702,
      "ĭp": 3703,
      "Ġsan": 3704,
      "Ġbi": 3705,
      "Ġopp": 3706,
      "Ġoffer": 3707,
      "ĠphiÃªn": 3708,
      "leg": 3709,
      "Ġxung": 3710,
      "ĠSch": 3711,
      "Ġsell": 3712,
      "aving": 3713,
      "Ġrelations": 3714,
      "Ġhands": 3715,
      "Ġprograms": 3716,
      "ĠsÃłng": 3717,
      "Ġhous": 3718,
      "Ġwind": 3719,
      "Ġhair": 3720,
      "RO": 3721,
      "iÃªm": 3722,
      "Ġcrit": 3723,
      "reed": 3724,
      "ĠWith": 3725,
      "apan": 3726,
      "Ġregister": 3727,
      "ho": 3728,
      "kay": 3729,
      "rast": 3730,
      "ĠhÃ¡t": 3731,
      "estic": 3732,
      "Ġfriends": 3733,
      "ĠcÅ©": 3734,
      "ĠÄĳá»£i": 3735,
      "aged": 3736,
      "ĠChá»ī": 3737,
      "umb": 3738,
      "ension": 3739,
      "Ġsupply": 3740,
      "Ġstandards": 3741,
      "ĠUnited": 3742,
      "Ġmeeting": 3743,
      "ĠngÃłi": 3744,
      "Ġselect": 3745,
      "Ġalmost": 3746,
      "Ġgetting": 3747,
      "Ġá»ķn": 3748,
      "ĠthÆ°á»Łng": 3749,
      "Ġstep": 3750,
      "Ġtaking": 3751,
      "ĠnháºŃt": 3752,
      "ĠÄĳá»«ng": 3753,
      "Ġrepl": 3754,
      "Ġhá»§y": 3755,
      "Ġdoor": 3756,
      "á»Ľ": 3757,
      "Ġbit": 3758,
      "Ġmother": 3759,
      "anu": 3760,
      "ĠSoc": 3761,
      "Ġcomb": 3762,
      "iety": 3763,
      "Ġstarted": 3764,
      "AS": 3765,
      "Gi": 3766,
      "ius": 3767,
      "Ġche": 3768,
      "Ġstop": 3769,
      "Ġ2014": 3770,
      "Ġarr": 3771,
      "ĠâĻ": 3772,
      "sc": 3773,
      "Ġansw": 3774,
      "ĠLa": 3775,
      "Ġapproved": 3776,
      "Ġproblem": 3777,
      "Ġnhiá»ĩt": 3778,
      "Ġquick": 3779,
      "Ġneg": 3780,
      "Ġcover": 3781,
      "Ġcoord": 3782,
      "Ġdirectly": 3783,
      "mm": 3784,
      "ua": 3785,
      "ĠmÅ©": 3786,
      "Ġwait": 3787,
      "Ġvá»£": 3788,
      "Ġprob": 3789,
      "Ġpolit": 3790,
      "Ġlevels": 3791,
      "Ġdossier": 3792,
      "¥ng": 3793,
      "ĠÂ": 3794,
      "Ġláº¯ng": 3795,
      "Ġfall": 3796,
      "Ġdise": 3797,
      "Ġprofessional": 3798,
      "iqu": 3799,
      "įt": 3800,
      "Ġself": 3801,
      "Ġváº¿t": 3802,
      "Ġofficial": 3803,
      "Ġcháº¥m": 3804,
      "Ġnorm": 3805,
      "leep": 3806,
      "Ġproduc": 3807,
      "Ġwasn": 3808,
      "medi": 3809,
      "Ġread": 3810,
      "Ġgiá»įng": 3811,
      "Ġná»Ĺi": 3812,
      "Ġbene": 3813,
      "iversity": 3814,
      "Ġmajor": 3815,
      "áºł": 3816,
      "semb": 3817,
      "Ġheard": 3818,
      "ĠWar": 3819,
      "Ġcomput": 3820,
      "Ġsound": 3821,
      "Ġkhá»ķ": 3822,
      "Ġentire": 3823,
      "Ġdifficult": 3824,
      "Ġnecessary": 3825,
      "Ġcreat": 3826,
      "ired": 3827,
      "ĠInvest": 3828,
      "Ġcountries": 3829,
      "ĠDecember": 3830,
      "ream": 3831,
      "ĠBoard": 3832,
      "Ġsingle": 3833,
      "Ġdáº¡y": 3834,
      "atory": 3835,
      "Ġnháº¯c": 3836,
      "ĠngÆ°Æ¡i": 3837,
      "ĠPres": 3838,
      "Ġlá»Ń": 3839,
      "ĠÄĳá»Ļt": 3840,
      "ĠChar": 3841,
      "Ġplant": 3842,
      "Ġsatis": 3843,
      "ae": 3844,
      "af": 3845,
      "ĠmÃ¡i": 3846,
      "ĠdÃµi": 3847,
      "ĠMy": 3848,
      "----": 3849,
      "Ġrecogn": 3850,
      "ully": 3851,
      "Ġprovinces": 3852,
      "Ġparticular": 3853,
      "ngth": 3854,
      "ĠtrÃº": 3855,
      "itary": 3856,
      "ett": 3857,
      "Ġcell": 3858,
      "ĠbÃŃ": 3859,
      "Ġtrao": 3860,
      "Ġsuccess": 3861,
      "Ġhimself": 3862,
      "ced": 3863,
      "ĠâĢ¦": 3864,
      "Ã²i": 3865,
      "Ġcommercial": 3866,
      "Ġ03": 3867,
      "Ġnet": 3868,
      "Ġtráº¯ng": 3869,
      "ĠgÃ£": 3870,
      "Ġthá»¥": 3871,
      "14": 3872,
      "Vá»": 3873,
      "Ġtáº¡p": 3874,
      "Ġxanh": 3875,
      "Ġ2008": 3876,
      "Ġvir": 3877,
      "Ġ2016": 3878,
      "Ġresponsible": 3879,
      "ID": 3880,
      "rew": 3881,
      "Ġxáº¥u": 3882,
      "ĠBáº¯c": 3883,
      "ĠPar": 3884,
      "ians": 3885,
      "ufact": 3886,
      "Ġsale": 3887,
      "Ġmo": 3888,
      "ĠXÃ¢y": 3889,
      "Ġhours": 3890,
      "Ġregard": 3891,
      "60": 3892,
      "ĠlÆ°á»£c": 3893,
      "Ġheart": 3894,
      "Ġmá»Ŀi": 3895,
      "ope": 3896,
      "Ġchiáº¿m": 3897,
      "Ġremember": 3898,
      "br": 3899,
      "itive": 3900,
      "ĠBá»": 3901,
      "Ä©a": 3902,
      "ĠJuly": 3903,
      "ĠÃģ": 3904,
      "Ġowners": 3905,
      "ĠbÃło": 3906,
      "Ġpack": 3907,
      "ĠtrÄĥm": 3908,
      "ival": 3909,
      "Ġreceiving": 3910,
      "Ġaccept": 3911,
      "ugust": 3912,
      "Ġdeclar": 3913,
      "Ġsold": 3914,
      "Ġbá»ĳn": 3915,
      "erve": 3916,
      "Ġexpect": 3917,
      "ĠthÃ´n": 3918,
      "Ġmatter": 3919,
      "Ġtrade": 3920,
      "ĠpháºŃn": 3921,
      "ĠBr": 3922,
      "Ġapproval": 3923,
      "Ġearly": 3924,
      "After": 3925,
      "DA": 3926,
      "ÃĶ": 3927,
      "Ġnáº·ng": 3928,
      "Ġlá»ħ": 3929,
      "ĠLiÃªn": 3930,
      "Ġrepresentative": 3931,
      "Ġweek": 3932,
      "13": 3933,
      "oke": 3934,
      "Ġmong": 3935,
      "Ġpast": 3936,
      "ĠhoÃłng": 3937,
      "Ġtrá»ĵng": 3938,
      "ĠKiá»ĥm": 3939,
      "unch": 3940,
      "ony": 3941,
      "ĠCol": 3942,
      "ĠÃĤ": 3943,
      "Viá»ĩc": 3944,
      "uff": 3945,
      "Ġtá»ĳc": 3946,
      "ĠtÃ´n": 3947,
      "Ġmult": 3948,
      "ote": 3949,
      "Ġdoct": 3950,
      "Ġteach": 3951,
      "ĠYork": 3952,
      "lus": 3953,
      "Ġcut": 3954,
      "Ġkim": 3955,
      "Ġforce": 3956,
      "ĠPH": 3957,
      "ape": 3958,
      "Ġrequired": 3959,
      "Ġbehind": 3960,
      "Ġcivil": 3961,
      "Ġsáº¡ch": 3962,
      "Ġháº¡ng": 3963,
      "Ġfelt": 3964,
      "ograph": 3965,
      "Ġparty": 3966,
      "Ġassessment": 3967,
      "aff": 3968,
      "roll": 3969,
      "Ġexamination": 3970,
      "Ġquestion": 3971,
      "ĠlÃ¢m": 3972,
      "Ġdáº§n": 3973,
      "Ġdue": 3974,
      "Ã³t": 3975,
      "Ġcontracts": 3976,
      "Ġtour": 3977,
      "Ġap": 3978,
      "Ġninh": 3979,
      "Ġxo": 3980,
      "sh": 3981,
      "Ġtáº¯t": 3982,
      "ĠphÃ¡n": 3983,
      "Ġ05": 3984,
      "2013": 3985,
      "Ġwords": 3986,
      "Ġquáº£ng": 3987,
      "orts": 3988,
      "orrow": 3989,
      "Ġbegin": 3990,
      "Ġbáº¡i": 3991,
      "Ġnáº¯m": 3992,
      "ĠPhá»¥": 3993,
      "avid": 3994,
      "Ġprincip": 3995,
      "Ġbáº¡c": 3996,
      "Ġná»Ńa": 3997,
      "Ġstrong": 3998,
      "ĠJune": 3999,
      "asing": 4000,
      "ĠGo": 4001,
      "Ġdeep": 4002,
      "ĠJapan": 4003,
      "Ġoutside": 4004,
      "NN": 4005,
      "Ġcities": 4006,
      "ĠthÄĥm": 4007,
      "ĠmÆ°á»Ŀi": 4008,
      "eth": 4009,
      "ama": 4010,
      "ored": 4011,
      "Ġtype": 4012,
      "Ġpossible": 4013,
      "Ġláº¡nh": 4014,
      "Ġpri": 4015,
      "ĠnÃªu": 4016,
      "Ġthá»Ł": 4017,
      "ills": 4018,
      "ĠThÆ°Æ¡ng": 4019,
      "Ġwomen": 4020,
      "BTC": 4021,
      "ĠcÃ¡n": 4022,
      "Ġple": 4023,
      "Ġngáº¯n": 4024,
      "ĠCont": 4025,
      "Ġlimit": 4026,
      "á»Ŀi": 4027,
      "Ġdá»«ng": 4028,
      "Ġtaken": 4029,
      "á»§ng": 4030,
      "Ġ2007": 4031,
      "Ġcreate": 4032,
      "Ġwoman": 4033,
      "At": 4034,
      "bit": 4035,
      "ĠcÆ°á»Ŀng": 4036,
      "Ġboy": 4037,
      "owers": 4038,
      "Ġsupplement": 4039,
      "Ġlonger": 4040,
      "Ġreports": 4041,
      "ef": 4042,
      "ĠÄĳáº¿": 4043,
      "Ġfur": 4044,
      "lex": 4045,
      "ĠNá»Ļi": 4046,
      "ĠDon": 4047,
      "Ġhappened": 4048,
      "Ġtháº¯ng": 4049,
      "Ġsá»Ľm": 4050,
      "Ġká»ĭp": 4051,
      "Ġassoc": 4052,
      "2015": 4053,
      "ps": 4054,
      "Ġthao": 4055,
      "Ġmot": 4056,
      "Ġchuyáº¿n": 4057,
      "pping": 4058,
      "Ġamong": 4059,
      "Ġpromulg": 4060,
      "Ġpric": 4061,
      "Ġná»ķ": 4062,
      "Ġblack": 4063,
      "Ġbáº£ng": 4064,
      "Ġvoice": 4065,
      "Ġexist": 4066,
      "Ġ2006": 4067,
      "Ġbring": 4068,
      "Ġacross": 4069,
      "ĠHá»į": 4070,
      "anuary": 4071,
      "Ġlá»Ńa": 4072,
      "Ġcáº§m": 4073,
      "Æ°á»¡ng": 4074,
      "Ġfig": 4075,
      "ĠPart": 4076,
      "oph": 4077,
      "Ġaddress": 4078,
      "No": 4079,
      "ĠÄĳÆ°Æ¡ng": 4080,
      "Ġbed": 4081,
      "Ġtoday": 4082,
      "ĠSept": 4083,
      "ecially": 4084,
      "á»©ng": 4085,
      "Ġmiss": 4086,
      "unt": 4087,
      "ĠJo": 4088,
      "ĠWorld": 4089,
      "ĠvÃŃ": 4090,
      "Ġmag": 4091,
      "ides": 4092,
      "Ġdá»©t": 4093,
      "Ġdecide": 4094,
      "Ġcourt": 4095,
      "ĠtÃ²a": 4096,
      "ĠsÃ³c": 4097,
      "ĠmÆ°Æ¡i": 4098,
      "ouch": 4099,
      "Ġtown": 4100,
      "Ġquen": 4101,
      "Ġappl": 4102,
      "Ġforms": 4103,
      "Ġcertificates": 4104,
      "ued": 4105,
      "ĠcÆ¡n": 4106,
      "Ġthiá»ĥu": 4107,
      "Ġinside": 4108,
      "Ġinfrast": 4109,
      "Ġsecurities": 4110,
      "aul": 4111,
      "Ġthá»«a": 4112,
      "ĠAugust": 4113,
      "fort": 4114,
      "Ġpaid": 4115,
      "Ġcháº·t": 4116,
      "ague": 4117,
      "Ġalbum": 4118,
      "Ġassist": 4119,
      "Ġ2009": 4120,
      "Ġobs": 4121,
      "ĠdÃłng": 4122,
      "ĠCÄĥn": 4123,
      "Ġadjust": 4124,
      "Ġwriting": 4125,
      "IT": 4126,
      "Ġhuyá»ĩn": 4127,
      "Ġwrong": 4128,
      "Ġfut": 4129,
      "ĠkhÃŃch": 4130,
      "Ġreach": 4131,
      "ĠSy": 4132,
      "Ġabove": 4133,
      "ĠNháºŃt": 4134,
      "Ġconcer": 4135,
      "Ġvua": 4136,
      "urope": 4137,
      "yle": 4138,
      "ĠIN": 4139,
      "ĠSau": 4140,
      "ĠDá»": 4141,
      "Ġngá»Ŀ": 4142,
      "Ġtháº§y": 4143,
      "Ġbar": 4144,
      "Ġláº¡": 4145,
      "ĠdáºŃy": 4146,
      "ĠnÃºi": 4147,
      "ators": 4148,
      "Ġhear": 4149,
      "Ġmyself": 4150,
      "Ġthemselves": 4151,
      "Ġtransact": 4152,
      "Ġmedic": 4153,
      "eor": 4154,
      "ĠcáºŃn": 4155,
      "change": 4156,
      "Ġsho": 4157,
      "ĠGod": 4158,
      "Ġprovince": 4159,
      "18": 4160,
      "itation": 4161,
      "Ġstory": 4162,
      "Ġsoon": 4163,
      "sembly": 4164,
      "ĠSeptember": 4165,
      "ģm": 4166,
      "Ġborder": 4167,
      "Ġrá»ĳi": 4168,
      "ĠJanuary": 4169,
      "fully": 4170,
      "Ġcause": 4171,
      "Ġson": 4172,
      "Ġsqu": 4173,
      "Ġfront": 4174,
      "ĠMon": 4175,
      "Ġ2020": 4176,
      "Ġsubmit": 4177,
      "inary": 4178,
      "Ġground": 4179,
      "Ġrather": 4180,
      "Ġdistrict": 4181,
      "Ġdark": 4182,
      "Ġkhá»§ng": 4183,
      "ĠNot": 4184,
      "Ġeffective": 4185,
      "Ġannual": 4186,
      "Ġpropos": 4187,
      "Ġthinking": 4188,
      "Ġang": 4189,
      "Ġbang": 4190,
      "ĠtrÃºc": 4191,
      "ĠrÃºt": 4192,
      "ĠMe": 4193,
      "ledge": 4194,
      "Ġsystems": 4195,
      "Ġprevent": 4196,
      "ÄĲá»ĥ": 4197,
      "ael": 4198,
      "ged": 4199,
      "Ġer": 4200,
      "ĠhÃºt": 4201,
      "Æ°á»£u": 4202,
      "ĠEng": 4203,
      "ĠPhÃ¡t": 4204,
      "Ġlangu": 4205,
      "ties": 4206,
      "Ġmention": 4207,
      "iá»ĩng": 4208,
      "ĠlÃ£i": 4209,
      "inistries": 4210,
      "ronic": 4211,
      "ĠQuáº£n": 4212,
      "Ġprotect": 4213,
      "Ġlocalities": 4214,
      "Ġlicense": 4215,
      "ĠCá»": 4216,
      "ĠJust": 4217,
      "rticles": 4218,
      "ĠThá»±c": 4219,
      "Ġbreak": 4220,
      "iam": 4221,
      "lu": 4222,
      "Ġlow": 4223,
      "chan": 4224,
      "ilar": 4225,
      "Ġshare": 4226,
      "ike": 4227,
      "ĠthÃŃ": 4228,
      "Ġministries": 4229,
      "ĠnÃ£o": 4230,
      "Ã³i": 4231,
      "Ġwhite": 4232,
      "iff": 4233,
      "Ġprep": 4234,
      "Ġheads": 4235,
      "Ġaccounting": 4236,
      "Ġdecided": 4237,
      "ĠbÃły": 4238,
      "Ġwaste": 4239,
      "ands": 4240,
      "Ġ''": 4241,
      "ublish": 4242,
      "Ġproviding": 4243,
      "Ġturned": 4244,
      "Ġfacilities": 4245,
      "ĠÄĳá»ı": 4246,
      "Ġhá»ģ": 4247,
      "Ġsepar": 4248,
      "Ġdisp": 4249,
      "undred": 4250,
      "Ġattack": 4251,
      "Ġelectricity": 4252,
      "ĠInvestment": 4253,
      "ein": 4254,
      "ky": 4255,
      "á»ĩ": 4256,
      "Ġly": 4257,
      "Ġpet": 4258,
      "ino": 4259,
      "ĠNH": 4260,
      "though": 4261,
      "Ġlost": 4262,
      "Ġparties": 4263,
      "ĠÄĲá»©c": 4264,
      "Ġaudit": 4265,
      "mp": 4266,
      "Ġdiv": 4267,
      "Ġkhiáº¿u": 4268,
      "ibilities": 4269,
      "ixed": 4270,
      "Ġkhuyáº¿n": 4271,
      "Ġtalking": 4272,
      "Ġpractice": 4273,
      "Ġagreement": 4274,
      "25": 4275,
      "ev": 4276,
      "ners": 4277,
      "ĠkhÃ³a": 4278,
      "ĠngÃ´n": 4279,
      "arily": 4280,
      "ada": 4281,
      "Ġexcept": 4282,
      "ĠKáº¿": 4283,
      "attle": 4284,
      "Ġdomestic": 4285,
      "ĠthÃ¹": 4286,
      "anger": 4287,
      "Ġappear": 4288,
      "áº³n": 4289,
      "Ġhigher": 4290,
      "Ġurban": 4291,
      "Ġrul": 4292,
      "ĠrÆ¡i": 4293,
      "vember": 4294,
      "ilt": 4295,
      "aging": 4296,
      "Ġprocessing": 4297,
      "Giá»": 4298,
      "IV": 4299,
      "ĠkÃŃnh": 4300,
      "ĠTháº¿": 4301,
      "Ġmanufact": 4302,
      "¥p": 4303,
      "Ġesp": 4304,
      "Ġlinh": 4305,
      "Ġpot": 4306,
      "Ġtrading": 4307,
      "á»¯a": 4308,
      "izing": 4309,
      "ource": 4310,
      "Ġdocument": 4311,
      "ze": 4312,
      "Ġage": 4313,
      "NgÃły": 4314,
      "Ġestablishments": 4315,
      "CH": 4316,
      "now": 4317,
      "ĠtÃ´": 4318,
      "ĠphÃºc": 4319,
      "ara": 4320,
      "Ġeither": 4321,
      "irm": 4322,
      "ĠÄĲÃ³": 4323,
      "acity": 4324,
      "Ġmach": 4325,
      "Ġconsum": 4326,
      "Ġhandling": 4327,
      "Ġcollection": 4328,
      "Ġrelationship": 4329,
      "With": 4330,
      "Ġtuyá»ĥn": 4331,
      "Ġaut": 4332,
      "Ġsil": 4333,
      "Ġsources": 4334,
      "Ġdraw": 4335,
      "ĠkhÃ¡ng": 4336,
      "aries": 4337,
      "ĠAss": 4338,
      "Ġspace": 4339,
      "Ġacts": 4340,
      "Ġconsult": 4341,
      "Ġsituation": 4342,
      "Ġfuture": 4343,
      "Ġbal": 4344,
      "Ġtrue": 4345,
      "ĠrÆ°á»£u": 4346,
      "Ġthá»ķ": 4347,
      "Ġchá»ĵng": 4348,
      "Ġwhether": 4349,
      "2006": 4350,
      "iously": 4351,
      "Ġpurchase": 4352,
      "bur": 4353,
      "Ġnáº¡i": 4354,
      "Ġvá»Ŀi": 4355,
      "ĠThu": 4356,
      "Ġmakes": 4357,
      "ĠNovember": 4358,
      "Ġskin": 4359,
      "Ġniá»ĩm": 4360,
      "ĠÄĳá»¡": 4361,
      "ĠMarch": 4362,
      "Ġjo": 4363,
      "ĠTrade": 4364,
      "play": 4365,
      "Ġprint": 4366,
      "2005": 4367,
      "ĠOrganiz": 4368,
      "Ġcomplain": 4369,
      "Ġview": 4370,
      "ĠmÃłn": 4371,
      "Ġmiá»ģn": 4372,
      "ĠtrÃ¹ng": 4373,
      "Ġfoc": 4374,
      "ĠHá»ĵ": 4375,
      "Ġtakes": 4376,
      "Ġpopulation": 4377,
      "Ġtempor": 4378,
      "Ġcopy": 4379,
      "Ġbáº¯n": 4380,
      "Ġwond": 4381,
      "Ġkháº£o": 4382,
      "ulf": 4383,
      "Ġcoming": 4384,
      "rive": 4385,
      "Ġsex": 4386,
      "Ġpret": 4387,
      "Ġclean": 4388,
      "ergy": 4389,
      "ĠSocial": 4390,
      "Ġprobably": 4391,
      "Don": 4392,
      "Ġtáº§m": 4393,
      "Ġngá»«ng": 4394,
      "oÃłi": 4395,
      "ĠÄĳem": 4396,
      "Ġpen": 4397,
      "ĠkÃ¬": 4398,
      "Ġisn": 4399,
      "epend": 4400,
      "Ġnhá»Ŀ": 4401,
      "where": 4402,
      "Ġtháº±ng": 4403,
      "Ġthiá»ĩt": 4404,
      "Ġsleep": 4405,
      "Ġhundred": 4406,
      "reg": 4407,
      "esc": 4408,
      "Ġexerc": 4409,
      "Ġfinal": 4410,
      "Ġreceived": 4411,
      "Ġsettlement": 4412,
      "Ġmass": 4413,
      "Ġtá»ı": 4414,
      "uted": 4415,
      "Ġstip": 4416,
      "ĠÄĳÃ£i": 4417,
      "Ġheld": 4418,
      "ĠÄĲáº§u": 4419,
      "Ġabs": 4420,
      "Ġcoll": 4421,
      "ĠÃĤu": 4422,
      "Ġespecially": 4423,
      "ĠÄĳe": 4424,
      "Ġliving": 4425,
      "Ġinit": 4426,
      "ecause": 4427,
      "Ġmá»ģm": 4428,
      "Ġcannot": 4429,
      "ĠTrans": 4430,
      "Ġsaying": 4431,
      "Ġemployees": 4432,
      "Ġtruy": 4433,
      "ĠngÆ°á»£c": 4434,
      "Ġ195": 4435,
      "Ġoffices": 4436,
      "Ġ80": 4437,
      "ĠnhiÃªu": 4438,
      "Ġkháº¯p": 4439,
      "Ġimmedi": 4440,
      "Ġalloc": 4441,
      "ĠGiÃ¡m": 4442,
      "Ġcosts": 4443,
      "Ġmorning": 4444,
      "Ġprices": 4445,
      "Be": 4446,
      "uk": 4447,
      "Ġparent": 4448,
      "Ġgave": 4449,
      "Ġloss": 4450,
      "................................": 4451,
      "Ġthuyá»ģn": 4452,
      "eral": 4453,
      "Ġchem": 4454,
      "ctober": 4455,
      "ĠSá»": 4456,
      "erson": 4457,
      "ĠnÃ³ng": 4458,
      "Ġ2005": 4459,
      "Ġreceip": 4460,
      "Ġeval": 4461,
      "oi": 4462,
      "ww": 4463,
      "á»įi": 4464,
      "ĠchÃ³ng": 4465,
      "oul": 4466,
      "ĠOn": 4467,
      "Ġrisk": 4468,
      "Ġsusp": 4469,
      "QÄĲ": 4470,
      "ĠtrÃŃch": 4471,
      "ĠHealth": 4472,
      "Ġflo": 4473,
      "Ġreferred": 4474,
      "Ġsáº¯t": 4475,
      "ĠlÃ¡i": 4476,
      "Ġexpenses": 4477,
      "Ġexperience": 4478,
      "ĠPlan": 4479,
      "ĠSecur": 4480,
      "ĠmÆ¡": 4481,
      "Ġcomes": 4482,
      "ĠKH": 4483,
      "Ġpolice": 4484,
      "Ġstrateg": 4485,
      "Ġincrease": 4486,
      "However": 4487,
      "Ġfurther": 4488,
      "Ġmiá»ĩng": 4489,
      "Ġgold": 4490,
      "ental": 4491,
      "Ġcla": 4492,
      "Ġorganize": 4493,
      "Ġperformance": 4494,
      "ĠDirector": 4495,
      "ĠPresident": 4496,
      "lin": 4497,
      "sy": 4498,
      "spect": 4499,
      "Ġbond": 4500,
      "itiz": 4501,
      "rown": 4502,
      "ĠAb": 4503,
      "empt": 4504,
      "Ġsoft": 4505,
      "Ġenergy": 4506,
      "Ġposition": 4507,
      "Ġfunct": 4508,
      "ĠtÆ°á»Ŀng": 4509,
      "Ġliá»ģn": 4510,
      "inst": 4511,
      "oms": 4512,
      "idents": 4513,
      "Ġáº¥n": 4514,
      "Ġkhiá»ĥn": 4515,
      "oses": 4516,
      "Ġcapacity": 4517,
      "Ġarch": 4518,
      "Ġevent": 4519,
      "Ġtáº¥m": 4520,
      "Ġfav": 4521,
      "vert": 4522,
      "Ġsea": 4523,
      "ĠDevelop": 4524,
      "CT": 4525,
      "joy": 4526,
      "oll": 4527,
      "ÃĿ": 4528,
      "ĠBáº£o": 4529,
      "ĠEurope": 4530,
      "Ġentit": 4531,
      "Ġeveryone": 4532,
      "Ġpaper": 4533,
      "CÄĥn": 4534,
      "ares": 4535,
      "Ġsense": 4536,
      "Ġbott": 4537,
      "Ġmaster": 4538,
      "Ġcheck": 4539,
      "Ġwin": 4540,
      "Ġrá»§": 4541,
      "head": 4542,
      "Ġship": 4543,
      "ĠKing": 4544,
      "Ġbuá»ĵn": 4545,
      "Ġir": 4546,
      "Ġháº³n": 4547,
      "Ġbreat": 4548,
      "Ġtráº¡i": 4549,
      "urt": 4550,
      "ĠGerm": 4551,
      "Ġappoint": 4552,
      "TTg": 4553,
      "Ġfunds": 4554,
      "ĠIII": 4555,
      "Ġconsidered": 4556,
      "ĠThá»Ŀi": 4557,
      "pril": 4558,
      "comm": 4559,
      "Ġden": 4560,
      "ĠCal": 4561,
      "Ġconform": 4562,
      "ĠÄĲiá»ĥm": 4563,
      "Ġprovision": 4564,
      "2012": 4565,
      "Ġngá»±a": 4566,
      "Ġassigned": 4567,
      "Ġdoctor": 4568,
      "Ġtit": 4569,
      "Ġlate": 4570,
      "omes": 4571,
      "Ġtá»ķn": 4572,
      "These": 4573,
      "Ġ70": 4574,
      "Ġavoid": 4575,
      "Ġproblems": 4576,
      "Ġoriginal": 4577,
      "Qu": 4578,
      "Ġtar": 4579,
      "urs": 4580,
      "igation": 4581,
      "ula": 4582,
      "ĠWill": 4583,
      "ĠWell": 4584,
      "Ġago": 4585,
      "Ġpriv": 4586,
      "á»ĥ": 4587,
      "Ġchá»ĳi": 4588,
      "ana": 4589,
      "Ġphot": 4590,
      "Ġhosp": 4591,
      "ĠAssembly": 4592,
      "ĠIndust": 4593,
      "Ġver": 4594,
      "seng": 4595,
      "ĠFOR": 4596,
      "Ġmechan": 4597,
      "ĠKhu": 4598,
      "Ġscientific": 4599,
      "cle": 4600,
      "Ġá»ĳng": 4601,
      "Ġwall": 4602,
      "ĠCor": 4603,
      "ĠBa": 4604,
      "Ġinstead": 4605,
      "Ġkey": 4606,
      "cl": 4607,
      "ror": 4608,
      "Ġgas": 4609,
      "icro": 4610,
      "verage": 4611,
      "2008": 4612,
      "Ġavail": 4613,
      "Ġcamp": 4614,
      "Ġbom": 4615,
      "Ġpull": 4616,
      "read": 4617,
      "Ġfile": 4618,
      "ifying": 4619,
      "Ġanal": 4620,
      "Ġfoot": 4621,
      "2007": 4622,
      "lands": 4623,
      "Ġinfrastructure": 4624,
      "men": 4625,
      "ox": 4626,
      "Ġvers": 4627,
      "Ġxong": 4628,
      "Ġnotice": 4629,
      "ipl": 4630,
      "Ġviolation": 4631,
      "TR": 4632,
      "ĠbÃ¡nh": 4633,
      "Ġváº½": 4634,
      "Ġpublish": 4635,
      "using": 4636,
      "ander": 4637,
      "odies": 4638,
      "Ġ35": 4639,
      "Ġmaybe": 4640,
      "2010": 4641,
      "ĠQuá»¹": 4642,
      "Ġdeclaration": 4643,
      "fect": 4644,
      "orry": 4645,
      "Ġngáº¡c": 4646,
      "Ġreven": 4647,
      "iding": 4648,
      "Ã£ng": 4649,
      "Ġhope": 4650,
      "Ġjoint": 4651,
      "Ġregular": 4652,
      "âĢ¦âĢ¦âĢ¦âĢ¦âĢ¦âĢ¦âĢ¦âĢ¦": 4653,
      "ggest": 4654,
      "Ġinvolved": 4655,
      "oon": 4656,
      "ening": 4657,
      "áº¥c": 4658,
      "ĠNorth": 4659,
      "ĠVÃĢ": 4660,
      "Ġsuggest": 4661,
      "ĠChrist": 4662,
      "áº¹n": 4663,
      "Ġmilitary": 4664,
      "ĠtáºŃn": 4665,
      "ĠhÃ´": 4666,
      "ĠTÆ°": 4667,
      "ĠFl": 4668,
      "Ġincome": 4669,
      "duction": 4670,
      "Ġspecies": 4671,
      "rench": 4672,
      "Ġgháº¿": 4673,
      "ĠInternet": 4674,
      "Ġdamage": 4675,
      "Ġhospital": 4676,
      "ĠsÃºng": 4677,
      "Ġbá»¯a": 4678,
      "Ġfre": 4679,
      "ĠquÃªn": 4680,
      "Ġdá»ĭ": 4681,
      "ĠOctober": 4682,
      "Ġhousehold": 4683,
      "Ġoccup": 4684,
      "xim": 4685,
      "alle": 4686,
      "ico": 4687,
      "Ġtao": 4688,
      "endit": 4689,
      "One": 4690,
      "ĠgÃ³c": 4691,
      "omy": 4692,
      "ĠAf": 4693,
      "Ġelig": 4694,
      "ancy": 4695,
      "Ġhistory": 4696,
      "Ġprior": 4697,
      "Ta": 4698,
      "yn": 4699,
      "Ġten": 4700,
      "Ġhon": 4701,
      "Ġdou": 4702,
      "Ġitem": 4703,
      "Ġexceed": 4704,
      "Ġcontain": 4705,
      "Ġissuance": 4706,
      "iddle": 4707,
      "Ġsatisf": 4708,
      "ĠtÆ°á»Ľc": 4709,
      "Ġthang": 4710,
      "Ġcouldn": 4711,
      "Ġhuáº¥n": 4712,
      "Ġmusic": 4713,
      "iated": 4714,
      "Ġmess": 4715,
      "eria": 4716,
      "Ġdig": 4717,
      "ĠgiáºŃn": 4718,
      "Ġhowe": 4719,
      "ude": 4720,
      "thern": 4721,
      "Ġpersonal": 4722,
      "Ġdossiers": 4723,
      "Ġfilm": 4724,
      "Ġhowever": 4725,
      "VÃŃ": 4726,
      "face": 4727,
      "ien": 4728,
      "áº¬": 4729,
      "Ġpowers": 4730,
      "ened": 4731,
      "Ġquite": 4732,
      "endix": 4733,
      "2014": 4734,
      "Ġsimilar": 4735,
      "ĠRegulation": 4736,
      "Ġimprove": 4737,
      "Ġrá»§i": 4738,
      "uá»ķi": 4739,
      "Ġhot": 4740,
      "iter": 4741,
      "ĠnhÆ°á»£ng": 4742,
      "ĠCáºŃu": 4743,
      "amm": 4744,
      "Ġ500": 4745,
      "ĠÃĲ": 4746,
      "Ľt": 4747,
      "ĠtÃºi": 4748,
      "Ġitself": 4749,
      "Ġbrain": 4750,
      "Ġneeds": 4751,
      "Ġboard": 4752,
      "Ġdistrib": 4753,
      "Ġcomputer": 4754,
      "All": 4755,
      "Some": 4756,
      "arter": 4757,
      "Ġeat": 4758,
      "ĠBÃ¡o": 4759,
      "Ġcompens": 4760,
      "Ġenjoy": 4761,
      "ĠAmerican": 4762,
      "Ġphysical": 4763,
      "CáºŃu": 4764,
      "aur": 4765,
      "Ġthiá»ĩu": 4766,
      "Ġthird": 4767,
      "ĠbáºŃt": 4768,
      "ĠlÆ°ng": 4769,
      "Ġcháº·n": 4770,
      "Ġfish": 4771,
      "Ġ2000": 4772,
      "ops": 4773,
      "Ġexchange": 4774,
      "ĠThanh": 4775,
      "Ġ193": 4776,
      "Ġlikely": 4777,
      "ĠtuÃ¢n": 4778,
      "Ġinvestor": 4779,
      "Ġ90": 4780,
      "Ġguarant": 4781,
      "ĠsÃ¡u": 4782,
      "uties": 4783,
      "ĠApril": 4784,
      "ulate": 4785,
      "ĠÄĲÃ´ng": 4786,
      "Ġfeet": 4787,
      "Ġdepos": 4788,
      "Ġequal": 4789,
      "Ġsuperv": 4790,
      "Ġgranted": 4791,
      "Ġháº¡nh": 4792,
      "ĠmÃ³n": 4793,
      "Æ°á»Ŀn": 4794,
      "ĠChÆ°Æ¡ng": 4795,
      "Ġcharacter": 4796,
      "ĠâĻ«": 4797,
      "duce": 4798,
      "put": 4799,
      "¥i": 4800,
      "Ġcard": 4801,
      "Ġcáº¥m": 4802,
      "Ġlab": 4803,
      "Ġbá»Ŀ": 4804,
      "ĠDavid": 4805,
      "AM": 4806,
      "ET": 4807,
      "Ġce": 4808,
      "Ġach": 4809,
      "ĠsÃ³ng": 4810,
      "Ġbodies": 4811,
      "Ġviá»ħn": 4812,
      "isc": 4813,
      "ĠPháº¡t": 4814,
      "Ġminister": 4815,
      "Ġimported": 4816,
      "Ġorigin": 4817,
      "ĠtÃ¹y": 4818,
      "ĠmÅ©i": 4819,
      "My": 4820,
      "don": 4821,
      "ha": 4822,
      "year": 4823,
      "ĠtÃ¡ch": 4824,
      "ĠtháºŃn": 4825,
      "Ġquant": 4826,
      "enty": 4827,
      "ĠHer": 4828,
      "ĠHar": 4829,
      "Ġsun": 4830,
      "Ġbanks": 4831,
      "Ġknowledge": 4832,
      "Ġvalid": 4833,
      "Ġstudents": 4834,
      "Ġinstitution": 4835,
      "Ġsocio": 4836,
      "Ġcoordinate": 4837,
      "Ġláº«n": 4838,
      "Ġcháº£y": 4839,
      "ison": 4840,
      "ĠPer": 4841,
      "sequ": 4842,
      "ĠFore": 4843,
      "Ġaccess": 4844,
      "ĠStates": 4845,
      "ĠUá»·": 4846,
      "Ġwouldn": 4847,
      "Ġopin": 4848,
      "Ġcommunic": 4849,
      "ka": 4850,
      "Ġmember": 4851,
      "Ġxáº¡": 4852,
      "Ġlower": 4853,
      "ĠCity": 4854,
      "Ġagric": 4855,
      "Ġ45": 4856,
      "rought": 4857,
      "Ġslow": 4858,
      "Ġsafe": 4859,
      "Ġspecialized": 4860,
      "Ġchanges": 4861,
      "ĠTechn": 4862,
      "ĠÄĳÃłi": 4863,
      "ĠchÃło": 4864,
      "Ġ2017": 4865,
      "Ġindic": 4866,
      "ĠGiÃ¡o": 4867,
      "Ġcarried": 4868,
      "Ġlearn": 4869,
      "Ġanimals": 4870,
      "Ġavailable": 4871,
      "Táº¡i": 4872,
      "á»±c": 4873,
      "Ġbur": 4874,
      "Ġtable": 4875,
      "Ġexact": 4876,
      "Ġsearch": 4877,
      "Ġreceive": 4878,
      "Ġobligations": 4879,
      "ey": 4880,
      "Ġaris": 4881,
      "ĠphÃ³": 4882,
      "Ġinvestors": 4883,
      "PL": 4884,
      "gu": 4885,
      "gress": 4886,
      "ires": 4887,
      "ica": 4888,
      "ĠAff": 4889,
      "ĠGI": 4890,
      "Ġwebs": 4891,
      "Ġbooks": 4892,
      "Ġallowed": 4893,
      "Ġpolitical": 4894,
      "Ġconcerned": 4895,
      "įa": 4896,
      "ĠyÃªn": 4897,
      "Ġsuff": 4898,
      "Ġimposed": 4899,
      "Ġsurve": 4900,
      "Ġcross": 4901,
      "ĠlÅ©": 4902,
      "reme": 4903,
      "ester": 4904,
      "iting": 4905,
      "uration": 4906,
      "Ġphá»©c": 4907,
      "hile": 4908,
      "eas": 4909,
      "Ġord": 4910,
      "ift": 4911,
      "Ġwhose": 4912,
      "Ġthá»ĭt": 4913,
      "Ġowner": 4914,
      "ĠgÃ³i": 4915,
      "Ġdetermined": 4916,
      "Ġquickly": 4917,
      "UR": 4918,
      "Ġ*": 4919,
      "Ġtráº¥n": 4920,
      "Ġtried": 4921,
      "Ġphone": 4922,
      "ĠCá»Ļng": 4923,
      "Ġalone": 4924,
      "Ġindepend": 4925,
      "ĠkhuÃ´n": 4926,
      "Ġamounts": 4927,
      "Ġspeak": 4928,
      "Ġmentioned": 4929,
      "ule": 4930,
      "¯ng": 4931,
      "Ġwife": 4932,
      "ĠTa": 4933,
      "Ġxá»©": 4934,
      "Ġstructure": 4935,
      "ĠDanh": 4936,
      "ĠOh": 4937,
      "Ġscience": 4938,
      "Ġdefined": 4939,
      "Ġkilled": 4940,
      "£t": 4941,
      "ĠthÆ¡": 4942,
      "Ġele": 4943,
      "Ġimag": 4944,
      "Ġoperating": 4945,
      "ounced": 4946,
      "Ġfully": 4947,
      "Ġpolicy": 4948,
      "Ġentitled": 4949,
      "Ãį": 4950,
      "Ġáº¡": 4951,
      "ĩt": 4952,
      "Ġhor": 4953,
      "Ġlá»ĳi": 4954,
      "oring": 4955,
      "ĠServ": 4956,
      "Ġconvers": 4957,
      "Ġdog": 4958,
      "time": 4959,
      "xÃ£": 4960,
      "ÃĤ": 4961,
      "Ġcitiz": 4962,
      "Ġsize": 4963,
      "arth": 4964,
      "imate": 4965,
      "Ġones": 4966,
      "cement": 4967,
      "Ġunivers": 4968,
      "Ġamend": 4969,
      "Ġmonitor": 4970,
      "Ġhyd": 4971,
      "Ġplaces": 4972,
      "¦A": 4973,
      "ĠlÆ°á»Ľi": 4974,
      "ĠAir": 4975,
      "Ġweb": 4976,
      "raz": 4977,
      "Ġ32": 4978,
      "Ġprevention": 4979,
      "Ġgroups": 4980,
      "pri": 4981,
      "Ġill": 4982,
      "Ġáº©n": 4983,
      "ĠbÃ£i": 4984,
      "Ġtri": 4985,
      "oud": 4986,
      "ĠBáº¡n": 4987,
      "Ġstore": 4988,
      "rael": 4989,
      "Theo": 4990,
      "Ġattention": 4991,
      "Ġestablished": 4992,
      "Ġnature": 4993,
      "Ġdrugs": 4994,
      "ply": 4995,
      "ta": 4996,
      "Ġhá»Ļp": 4997,
      "Ġvict": 4998,
      "Ġge": 4999,
      "Ġnguyá»ĩn": 5000,
      "ĠgiÃ¢y": 5001,
      "ĠBrit": 5002,
      "rison": 5003,
      "Ġ2004": 5004,
      "Ġoperations": 5005,
      "Ġpromot": 5006,
      "ĠnhuáºŃn": 5007,
      "ĠManagement": 5008,
      "Ġdebt": 5009,
      "Ġradio": 5010,
      "QD": 5011,
      "má»Ļt": 5012,
      "ãĥ": 5013,
      "á»ŀ": 5014,
      "ĠngÃ³n": 5015,
      "Ġforces": 5016,
      "Then": 5017,
      "achel": 5018,
      "Ġclos": 5019,
      "Ġincluded": 5020,
      "Ġsigned": 5021,
      "Ġseries": 5022,
      "Ġlanguage": 5023,
      "cast": 5024,
      "view": 5025,
      "Ġcat": 5026,
      "ĠcÄĥng": 5027,
      "Ġmanage": 5028,
      "Ġseemed": 5029,
      "Oh": 5030,
      "Ġtan": 5031,
      "Ġcoun": 5032,
      "ĠhÃłi": 5033,
      "Ġinstruct": 5034,
      "artments": 5035,
      "ĠOff": 5036,
      "Ġemerg": 5037,
      "Ġapplicable": 5038,
      "Ġindustry": 5039,
      "hib": 5040,
      "ny": 5041,
      "Ġsáº»": 5042,
      "ĠCO": 5043,
      "ĠGiá»": 5044,
      "Ġappra": 5045,
      "Ġusually": 5046,
      "Ġactual": 5047,
      "ĠGiao": 5048,
      "Ġterms": 5049,
      "1999": 5050,
      "Ġreview": 5051,
      "Ġvehicles": 5052,
      "Ġachie": 5053,
      "ĠtÄ©nh": 5054,
      "ĠhÃłm": 5055,
      "ĠdÆ°Æ¡ng": 5056,
      "Ġtrust": 5057,
      "ĠSw": 5058,
      "acc": 5059,
      "avy": 5060,
      "khÃ´ng": 5061,
      "Ġpurpose": 5062,
      "¡i": 5063,
      "Ġbrought": 5064,
      "Ġmáº¡ch": 5065,
      "Ġgone": 5066,
      "Ġpha": 5067,
      "Ġet": 5068,
      "Ġbea": 5069,
      "ĠSouth": 5070,
      "luding": 5071,
      "ustoms": 5072,
      "Ġclaim": 5073,
      "Sá»±": 5074,
      "Ġlives": 5075,
      "Ġwish": 5076,
      "Ġconv": 5077,
      "ĠVáºŃy": 5078,
      "ights": 5079,
      "Ġgrad": 5080,
      "Ġcenter": 5081,
      "Ġreceipt": 5082,
      "ĠDevelopment": 5083,
      "ĠIndustry": 5084,
      "Pursuant": 5085,
      "Your": 5086,
      "ĠtÃ¢y": 5087,
      "Ġtháº»": 5088,
      "Ġbillion": 5089,
      "ĠmÃ¨o": 5090,
      "ĠlÃłnh": 5091,
      "istics": 5092,
      "Ã¹a": 5093,
      "Ġdeg": 5094,
      "Ġsometimes": 5095,
      "Ġcurren": 5096,
      "ĠAdm": 5097,
      "Ġapplied": 5098,
      "ĠÄĳÃ¨n": 5099,
      "ĠnÃ©": 5100,
      "ĠPal": 5101,
      "ĠHÃłng": 5102,
      "ĠlÃ£o": 5103,
      "Ġfeeling": 5104,
      "Ġmodern": 5105,
      "Ġencour": 5106,
      "Ġ%,": 5107,
      "Ġanswer": 5108,
      "ging": 5109,
      "ĠnhÃ©": 5110,
      "ĠgiÃł": 5111,
      "ĠSam": 5112,
      "pper": 5113,
      "ortun": 5114,
      "Ġanyone": 5115,
      "Ġzones": 5116,
      "ball": 5117,
      "Ġaverage": 5118,
      "Ġmob": 5119,
      "Ġcháº¡m": 5120,
      "Ġways": 5121,
      "Ġcá»©ng": 5122,
      "Ġ33": 5123,
      "Ġengine": 5124,
      "Ġchemical": 5125,
      "dy": 5126,
      "zz": 5127,
      "Ġháº¥p": 5128,
      "Ġkept": 5129,
      "ĠquÃ¡n": 5130,
      "room": 5131,
      "ĠBar": 5132,
      "irth": 5133,
      "term": 5134,
      "ensive": 5135,
      "2011": 5136,
      "Ġexpress": 5137,
      "Ġstandard": 5138,
      "ĠEnter": 5139,
      "Ġmoved": 5140,
      "Ġtypes": 5141,
      "Ġobserv": 5142,
      "ĠAffairs": 5143,
      "Máº·c": 5144,
      "Ġláº·ng": 5145,
      "hel": 5146,
      "Ġbuilt": 5147,
      "Ġneeded": 5148,
      "ĠAppendix": 5149,
      "Ġhouses": 5150,
      "ham": 5151,
      "haps": 5152,
      "Ġcold": 5153,
      "Ġdanger": 5154,
      "rec": 5155,
      "ĠkhÃ´": 5156,
      "ĠCert": 5157,
      "ĠMed": 5158,
      "Ġsignific": 5159,
      "Ġá»§ng": 5160,
      "Ġpretty": 5161,
      "eal": 5162,
      "gi": 5163,
      "gest": 5164,
      "Ġhiá»ĩp": 5165,
      "Ġniá»ģm": 5166,
      "iled": 5167,
      "ĠÄĲÆ¡n": 5168,
      "2009": 5169,
      "anced": 5170,
      "Ġeasy": 5171,
      "ĠInternational": 5172,
      "Ġdisease": 5173,
      "ĠlÃŃnh": 5174,
      "Ġvá»¡": 5175,
      "ĠPol": 5176,
      "ĠLao": 5177,
      "Ġsumm": 5178,
      "Ġloáº¡n": 5179,
      "Ġhá»įa": 5180,
      "ĠChina": 5181,
      "ĠODA": 5182,
      "Ġprefer": 5183,
      "ĠTHá»": 5184,
      "Ġbenef": 5185,
      "CN": 5186,
      "Ġton": 5187,
      "ĠbÃ¨": 5188,
      "ĠTO": 5189,
      "ĠAfter": 5190,
      "ĠPublic": 5191,
      "ĠHy": 5192,
      "ĠDr": 5193,
      "ĠDá»±": 5194,
      "econ": 5195,
      "Ġintro": 5196,
      "indows": 5197,
      "aves": 5198,
      "unications": 5199,
      "Ġovers": 5200,
      "Ġchair": 5201,
      "ĠtrÆ°ng": 5202,
      "Ġfing": 5203,
      "ĠMich": 5204,
      "ĠLan": 5205,
      "Ġloan": 5206,
      "Ġcentury": 5207,
      "ĠEmily": 5208,
      "Ex": 5209,
      "Ġfarm": 5210,
      "ĠrÄĥng": 5211,
      "Ġclause": 5212,
      "Chá»ī": 5213,
      "ĠÃĿ": 5214,
      "Ġelectronic": 5215,
      "ÄĲá»«ng": 5216,
      "Ġexercise": 5217,
      "cri": 5218,
      "Ġ{": 5219,
      "Ġsorry": 5220,
      "Ġlay": 5221,
      "Ġchim": 5222,
      "roy": 5223,
      "Ġrout": 5224,
      "hem": 5225,
      "ĠMal": 5226,
      "ĠRuss": 5227,
      "Ġworked": 5228,
      "ĠWhere": 5229,
      "Why": 5230,
      "Ġexpendit": 5231,
      "Ġnames": 5232,
      "Ġpatients": 5233,
      "fficient": 5234,
      "how": 5235,
      "ĠHÃ£y": 5236,
      "Ġprec": 5237,
      "Ġ2001": 5238,
      "Ġprim": 5239,
      "rupt": 5240,
      "Ġarm": 5241,
      "Ġdiscover": 5242,
      "Ġled": 5243,
      "Ġpick": 5244,
      "ols": 5245,
      "ĠVi": 5246,
      "Ġsuit": 5247,
      "Ġloans": 5248,
      "Ġtravel": 5249,
      "Ġaddition": 5250,
      "like": 5251,
      "16": 5252,
      "iber": 5253,
      "uel": 5254,
      "Ġopt": 5255,
      "Ġchance": 5256,
      "asons": 5257,
      "Ġrent": 5258,
      "etic": 5259,
      "anda": 5260,
      "Ġissues": 5261,
      "Ġwrite": 5262,
      "Ġnamed": 5263,
      "Ġguidance": 5264,
      "Ġmethods": 5265,
      "book": 5266,
      "ĠÄĳÃ²i": 5267,
      "Ġláº»": 5268,
      "Ġking": 5269,
      "Ġvá»¯ng": 5270,
      "amb": 5271,
      "ĠOne": 5272,
      "Ġplants": 5273,
      "Ġsecret": 5274,
      "Ġadded": 5275,
      "ÃĶNG": 5276,
      "Ġimmediately": 5277,
      "17": 5278,
      "ki": 5279,
      "ker": 5280,
      "Ġkm": 5281,
      "ĠSan": 5282,
      "ĠMc": 5283,
      "agn": 5284,
      "Ġagreed": 5285,
      "Ġtarget": 5286,
      "com": 5287,
      "oáº¡i": 5288,
      "ĠÄĳÄ©a": 5289,
      "ĠPhi": 5290,
      "Ġparts": 5291,
      "ĠNga": 5292,
      "Ġsurpris": 5293,
      "Ġdifference": 5294,
      "tt": 5295,
      "ĠtÃ¡n": 5296,
      "Ġtend": 5297,
      "Ġhuá»ĳng": 5298,
      "Ġmi": 5299,
      "onse": 5300,
      "Ġpict": 5301,
      "rog": 5302,
      "ĠTÃ²a": 5303,
      "Ġforward": 5304,
      "Ġmá»¹": 5305,
      "aby": 5306,
      "Ġappropri": 5307,
      "ĠHá»£p": 5308,
      "ĠkÃ©m": 5309,
      "Ġstipulated": 5310,
      "ÄĤ": 5311,
      "Ġsort": 5312,
      "Ġhar": 5313,
      "asseng": 5314,
      "ĠRom": 5315,
      "ĠEl": 5316,
      "Ġcreated": 5317,
      "Ġsupervision": 5318,
      "Ġpapers": 5319,
      "Ġanimal": 5320,
      "ran": 5321,
      "ugh": 5322,
      "Æł": 5323,
      "ĠcÃł": 5324,
      "Ġthous": 5325,
      "iáº¿c": 5326,
      "Ġlá»Ĺ": 5327,
      "ĠLabor": 5328,
      "ĠkhoÃ¡ng": 5329,
      "Ġliqu": 5330,
      "Ġfeed": 5331,
      "akes": 5332,
      "Ġbrother": 5333,
      "dden": 5334,
      "ĠthÆ°a": 5335,
      "Ġmai": 5336,
      "Ġmount": 5337,
      "atures": 5338,
      "Ġgre": 5339,
      "ĠÄĳá»©c": 5340,
      "ster": 5341,
      "istic": 5342,
      "Ġsudden": 5343,
      "Ġloáº¡t": 5344,
      "rav": 5345,
      "Ġcontent": 5346,
      "Ġbox": 5347,
      "ĠDoanh": 5348,
      "Bá»Ļ": 5349,
      "ST": 5350,
      "gment": 5351,
      "Ġess": 5352,
      "Ġláº¯p": 5353,
      "inese": 5354,
      "Ġdie": 5355,
      "Ġnháº£y": 5356,
      "ourt": 5357,
      "Ġhost": 5358,
      "stant": 5359,
      "Ġadop": 5360,
      "Ġtraffic": 5361,
      "Ġcommunity": 5362,
      "Ġpoor": 5363,
      "Ġquestions": 5364,
      "Ġvarious": 5365,
      "Ġregistered": 5366,
      "do": 5367,
      "sau": 5368,
      "rest": 5369,
      "Ġhá»©ng": 5370,
      "Ã¹i": 5371,
      "ples": 5372,
      "ruary": 5373,
      "Ġfavor": 5374,
      "ÃĬ": 5375,
      "ĠÄĳai": 5376,
      "Ġgun": 5377,
      "ĠgiÃłu": 5378,
      "á»ıng": 5379,
      "Ġ2002": 5380,
      "Ġmeasure": 5381,
      "Ġexecution": 5382,
      "BÃł": 5383,
      "ault": 5384,
      "wh": 5385,
      "ĠÄĳuá»ķi": 5386,
      "Ġhi": 5387,
      "ĠmÃ£i": 5388,
      "ĠBro": 5389,
      "ĠThen": 5390,
      "ĠWal": 5391,
      "Ġ192": 5392,
      "Ġregion": 5393,
      "Ġworkers": 5394,
      "Ġeffic": 5395,
      "ĠProv": 5396,
      "Ġleaders": 5397,
      "Ġmanaging": 5398,
      "Ġclearly": 5399,
      "economic": 5400,
      "IL": 5401,
      "Let": 5402,
      "Ġswe": 5403,
      "Ġemb": 5404,
      "Ġemot": 5405,
      "Ġgá»Ĺ": 5406,
      "Ġnumbers": 5407,
      "Ġlicens": 5408,
      "instein": 5409,
      "pay": 5410,
      "¯a": 5411,
      "Ġbirth": 5412,
      "Ġvill": 5413,
      "Ġmouth": 5414,
      "rel": 5415,
      "Ġfixed": 5416,
      "Ġqual": 5417,
      "Ġsto": 5418,
      "illed": 5419,
      "ivity": 5420,
      "ĠJack": 5421,
      "Ġrole": 5422,
      "Ġreleased": 5423,
      "ĠIsrael": 5424,
      "Ġbehav": 5425,
      "Ġweeks": 5426,
      "ĠCentral": 5427,
      "ĠÄĳÃª": 5428,
      "Ġbase": 5429,
      "Ġready": 5430,
      "urch": 5431,
      "ĠHÃł": 5432,
      "Ġstated": 5433,
      "ĠSte": 5434,
      "Ġinstall": 5435,
      "Ġdiscuss": 5436,
      "ebruary": 5437,
      "Tá»«": 5438,
      "gy": 5439,
      "Ġtouch": 5440,
      "ĠÄĳiÃªn": 5441,
      "Ġbáº¯c": 5442,
      "Ġtrá»ĳn": 5443,
      "ites": 5444,
      "isal": 5445,
      "Ġthá»Ŀ": 5446,
      "ĠgiÃłnh": 5447,
      "ĠThÃłnh": 5448,
      "Ġnews": 5449,
      "ircraft": 5450,
      "Ġcaused": 5451,
      "tenance": 5452,
      "Ġáº¤": 5453,
      "Ġláº§m": 5454,
      "áºŃc": 5455,
      "Ġrat": 5456,
      "lick": 5457,
      "Ġfees": 5458,
      "Ġpresident": 5459,
      "Ġchá»§ng": 5460,
      "atever": 5461,
      "ĠÄĲÆ°á»£c": 5462,
      "Ġgoes": 5463,
      "ĠNha": 5464,
      "Ġchanged": 5465,
      "Ġnetwork": 5466,
      "2000": 5467,
      "wood": 5468,
      "ĠsÃ³t": 5469,
      "ĠlÃ´": 5470,
      "Ġpasseng": 5471,
      "Ġkháº¥u": 5472,
      "Ġrá»Ńa": 5473,
      "ĠxÃ¢m": 5474,
      "stances": 5475,
      "ĠVá»¥": 5476,
      "aced": 5477,
      "Ġkhuáº©n": 5478,
      "Ġannounced": 5479,
      "Ġparents": 5480,
      "ĠPlanning": 5481,
      "sych": 5482,
      "Ġprivate": 5483,
      "dom": 5484,
      "¥t": 5485,
      "ĠtÃłn": 5486,
      "ĠbÃ¹": 5487,
      "Ġlaugh": 5488,
      "ĠdÆ°": 5489,
      "Ġdied": 5490,
      "Ã¬a": 5491,
      "Cho": 5492,
      "Ġhappy": 5493,
      "Ġgrowth": 5494,
      "ĠWithin": 5495,
      "Ġfunctions": 5496,
      "GT": 5497,
      "Is": 5498,
      "bor": 5499,
      "Ġtuy": 5500,
      "ĠdÆ°á»Ŀng": 5501,
      "ĠCHá»": 5502,
      "ĠAng": 5503,
      "ĠPRO": 5504,
      "ĠVal": 5505,
      "ought": 5506,
      "Ġinflu": 5507,
      "ĠRepublic": 5508,
      "mer": 5509,
      "Ġesc": 5510,
      "ĠsiÃªu": 5511,
      "rect": 5512,
      "Ġnor": 5513,
      "Ġtrain": 5514,
      "Ãªnh": 5515,
      "ĠStar": 5516,
      "Ġlá»ĩch": 5517,
      "Ġadditional": 5518,
      "Ġbelow": 5519,
      "Ġsimple": 5520,
      "Ġcompletely": 5521,
      "Ġfloor": 5522,
      "Ġministerial": 5523,
      "ĠlÃ´ng": 5524,
      "ĠgiÆ°á»Ŀng": 5525,
      "2004": 5526,
      "ĠAlice": 5527,
      "Ġaccounts": 5528,
      "Ġexplo": 5529,
      "Ġfunction": 5530,
      "ĠmÃ¹i": 5531,
      "Vá»Ľi": 5532,
      "ĠCá»¦A": 5533,
      "Ġpenal": 5534,
      "Ho": 5535,
      "nel": 5536,
      "ters": 5537,
      "ya": 5538,
      "Ġhit": 5539,
      "Ġhang": 5540,
      "Ġtruth": 5541,
      "Ġchá»¥p": 5542,
      "ĠBÃªn": 5543,
      "ils": 5544,
      "ĠÄĲá»ĭ": 5545,
      "ĠFebruary": 5546,
      "ĠÄĲá»Ĭ": 5547,
      "Ġrunning": 5548,
      "Ġstatus": 5549,
      "500": 5550,
      "Táº¥t": 5551,
      "losed": 5552,
      "mon": 5553,
      "more": 5554,
      "wo": 5555,
      "Ġdro": 5556,
      "Ġduty": 5557,
      "ĠnhÃ£n": 5558,
      "Ġhá»ķ": 5559,
      "ĠMinh": 5560,
      "ĠPark": 5561,
      "bert": 5562,
      "Ġsurface": 5563,
      "Ġoccur": 5564,
      "Or": 5565,
      "aj": 5566,
      "Ġtha": 5567,
      "Ġháº£": 5568,
      "ille": 5569,
      "ĠnghÃ¨o": 5570,
      "Ġstri": 5571,
      "ĠVI": 5572,
      "ĠThÃ¡i": 5573,
      "ĠRo": 5574,
      "iece": 5575,
      "Ġcommand": 5576,
      "Ġcharges": 5577,
      "Ġcompetence": 5578,
      "Ġconcent": 5579,
      "iction": 5580,
      "Ġserve": 5581,
      "Ġterrit": 5582,
      "Ġsanction": 5583,
      "Ġthai": 5584,
      "Ġaid": 5585,
      "Ġdiá»ĩt": 5586,
      "ĠChá»©ng": 5587,
      "iven": 5588,
      "ĠRon": 5589,
      "Ġperfect": 5590,
      "Ġaction": 5591,
      "2003": 5592,
      "Ġlocated": 5593,
      "Ġná»Ĺ": 5594,
      "Ġresponse": 5595,
      "Ġeye": 5596,
      "Ġbeginning": 5597,
      "Ġmechanism": 5598,
      "de": 5599,
      "Ġduration": 5600,
      "Ġtrou": 5601,
      "ione": 5602,
      "ĠAust": 5603,
      "ĠBÃł": 5604,
      "ĠGeor": 5605,
      "ĠFund": 5606,
      "ĠFrench": 5607,
      "Ġhá»ĵn": 5608,
      "ique": 5609,
      "Ġmultip": 5610,
      "Because": 5611,
      "RE": 5612,
      "iate": 5613,
      "Ġ\\": 5614,
      "Ġtháº£": 5615,
      "Ġmid": 5616,
      "Ġded": 5617,
      "amin": 5618,
      "ĠMor": 5619,
      "ously": 5620,
      "ĠPhÃ²ng": 5621,
      "ĠInformation": 5622,
      "ĠNgÃłi": 5623,
      "Ġformer": 5624,
      "Ġguide": 5625,
      "Ġwebsite": 5626,
      "Pro": 5627,
      "za": 5628,
      "ises": 5629,
      "ĠAlex": 5630,
      "Ġbá»ģ": 5631,
      "ĠGl": 5632,
      "Ã©o": 5633,
      "ondon": 5634,
      "Ġ04": 5635,
      "Ġserious": 5636,
      "ĠAmerica": 5637,
      "hoáº·c": 5638,
      "Ġexactly": 5639,
      "ĠCertific": 5640,
      "VN": 5641,
      "rain": 5642,
      "Ġaf": 5643,
      "Ġarticles": 5644,
      "ĠhÆ°": 5645,
      "Ġbáº¡o": 5646,
      "Ġlan": 5647,
      "ĠÄĳá»±ng": 5648,
      "Ġreasons": 5649,
      "ĠHis": 5650,
      "Ġdoll": 5651,
      "Ġcommit": 5652,
      "Ġapproach": 5653,
      "Ġsimply": 5654,
      "Ġdemand": 5655,
      "Ġwalk": 5656,
      "eed": 5657,
      "Ġcultural": 5658,
      "ĠxÆ°Æ¡ng": 5659,
      "emy": 5660,
      "ĠRE": 5661,
      "enced": 5662,
      "ĠbuÃ´n": 5663,
      "Ġattempt": 5664,
      "Ġexperi": 5665,
      "Ġinterests": 5666,
      "ĠAdministr": 5667,
      "Tá»ķ": 5668,
      "band": 5669,
      "iot": 5670,
      "nor": 5671,
      "vent": 5672,
      "ĠthÆ°á»Ľc": 5673,
      "Ġfear": 5674,
      "ĠTax": 5675,
      "ĠEarth": 5676,
      "Ġcontact": 5677,
      "Ġgets": 5678,
      "Ġfinally": 5679,
      "Ġrecorded": 5680,
      "Ġofficers": 5681,
      "Æ¯á»ļ": 5682,
      "Ġpurposes": 5683,
      "By": 5684,
      "cer": 5685,
      "uch": 5686,
      "Ġmatt": 5687,
      "ĠdÃ²": 5688,
      "Ġdream": 5689,
      "Ġrates": 5690,
      "ĠNor": 5691,
      "Ġhoang": 5692,
      "Ġprote": 5693,
      "ĠHÃĢ": 5694,
      "ĠDis": 5695,
      "ording": 5696,
      "Ġconsist": 5697,
      "Ġinternal": 5698,
      "ĠAfric": 5699,
      "Ġsignificant": 5700,
      "CE": 5701,
      "ram": 5702,
      "right": 5703,
      "sing": 5704,
      "Ġaircraft": 5705,
      "Ġngáº¡i": 5706,
      "Ġreact": 5707,
      "ĠViá»ĩn": 5708,
      "ago": 5709,
      "Ġimm": 5710,
      "ocks": 5711,
      "Ġthoáº£i": 5712,
      "Ġevents": 5713,
      "Ġmodel": 5714,
      "Ġmaintenance": 5715,
      "BÃ¢y": 5716,
      "bon": 5717,
      "Ĺng": 5718,
      "Ġbidd": 5719,
      "Ġmáº½": 5720,
      "Ġphá»ıng": 5721,
      "Ġep": 5722,
      "Ãºy": 5723,
      "Ġincludes": 5724,
      "Ġcenters": 5725,
      "Ġzone": 5726,
      "Ġguiding": 5727,
      "ĠSecurity": 5728,
      "Ġcompensation": 5729,
      "ĠOffice": 5730,
      "ĠÄĲá»ĬNH": 5731,
      "egr": 5732,
      "iations": 5733,
      "with": 5734,
      "ĠbáºŃc": 5735,
      "Ġmiddle": 5736,
      "Ġtrack": 5737,
      "ĠTV": 5738,
      "ĠPre": 5739,
      "ables": 5740,
      "riage": 5741,
      "Ġmeant": 5742,
      "Ġspent": 5743,
      "Ġprem": 5744,
      "Ġprime": 5745,
      "Ġopened": 5746,
      "Ġcontinue": 5747,
      "Ġseparate": 5748,
      "UL": 5749,
      "bed": 5750,
      "Ġut": 5751,
      "Ġhá»ĳi": 5752,
      "ĠhÃ£i": 5753,
      "ero": 5754,
      "Ġpath": 5755,
      "Ġ\")": 5756,
      "Ġran": 5757,
      "Ġtá»ī": 5758,
      "Ġasset": 5759,
      "ĠGiÃª": 5760,
      "Ġlooks": 5761,
      "Ġsched": 5762,
      "Ġfunding": 5763,
      "Ġcarrying": 5764,
      "Ġtowards": 5765,
      "Ġnegative": 5766,
      "QH": 5767,
      "gent": 5768,
      "Ġáº¥m": 5769,
      "Ġchief": 5770,
      "ĠtrÃ²n": 5771,
      "ĠTre": 5772,
      "Ġhá»ıng": 5773,
      "ads": 5774,
      "ĠForm": 5775,
      "Ġká»ĭch": 5776,
      "ogle": 5777,
      "ĠInspect": 5778,
      "Ġdeveloped": 5779,
      "ĠConstruction": 5780,
      "Ġcustomers": 5781,
      "lation": 5782,
      "rated": 5783,
      "tion": 5784,
      "xy": 5785,
      "yond": 5786,
      "Ġcong": 5787,
      "Ġsource": 5788,
      "enry": 5789,
      "Ġfulf": 5790,
      "Ġrepe": 5791,
      "iment": 5792,
      "Ġstood": 5793,
      "ĠVÃ¬": 5794,
      "ĠphÃ¡i": 5795,
      "Ġattract": 5796,
      "Ġmedia": 5797,
      "ĠCanada": 5798,
      "Ġopportun": 5799,
      "ded": 5800,
      "ming": 5801,
      "Ġhung": 5802,
      "Ġliá»ĩt": 5803,
      "Ġwarm": 5804,
      "ĠTáº¥t": 5805,
      "Ġonline": 5806,
      "Ġcolle": 5807,
      "Ġreturned": 5808,
      "áº¢N": 5809,
      "ĠÃĲá»©c": 5810,
      "TS": 5811,
      "come": 5812,
      "nal": 5813,
      "Ġkid": 5814,
      "Ġga": 5815,
      "Æ°á»¡i": 5816,
      "Ġkhung": 5817,
      "Ġriver": 5818,
      "lly": 5819,
      "Ġseal": 5820,
      "uction": 5821,
      "2002": 5822,
      "Ġcolor": 5823,
      "ĠUSD": 5824,
      "Ġaw": 5825,
      "Ġaqu": 5826,
      "Ġsite": 5827,
      "era": 5828,
      "Ġokay": 5829,
      "Ġtrá»ĳng": 5830,
      "Ġfem": 5831,
      "rote": 5832,
      "ĠgiÃły": 5833,
      "Ġhá»©a": 5834,
      "ĠSal": 5835,
      "Ġstra": 5836,
      "ĠLá»": 5837,
      "ĠWas": 5838,
      "Ġcriteria": 5839,
      "ĠTechnology": 5840,
      "eared": 5841,
      "gn": 5842,
      "ĠÄĳáºŃp": 5843,
      "Ġsen": 5844,
      "Ġkids": 5845,
      "atab": 5846,
      "Ġround": 5847,
      "ĠSub": 5848,
      "ĠMá»¥c": 5849,
      "Ġtrá»¥c": 5850,
      "Ġseven": 5851,
      "Ġtext": 5852,
      "Ġ2003": 5853,
      "2016": 5854,
      "ĠWhy": 5855,
      "ĠItal": 5856,
      "wards": 5857,
      "ĠUniversity": 5858,
      "Ġbroad": 5859,
      "Ġstrength": 5860,
      "Ġrules": 5861,
      "alleng": 5862,
      "PP": 5863,
      "wise": 5864,
      "Ġsn": 5865,
      "ĠmÃª": 5866,
      "ĠdÆ°á»£c": 5867,
      "Ġ\"-": 5868,
      "ĠgiÃ³": 5869,
      "ĠBill": 5870,
      "Ġproduce": 5871,
      "ĠPursuant": 5872,
      "ĠÄĲÃ¢y": 5873,
      "key": 5874,
      "ocr": 5875,
      "Ġ2018": 5876,
      "ressed": 5877,
      "Ġminim": 5878,
      "Ġreported": 5879,
      "Ġdirector": 5880,
      "Ġpoints": 5881,
      "Ġtesting": 5882,
      "Ġmoving": 5883,
      "Ġdestroy": 5884,
      "Ġnormal": 5885,
      "Ġtemporary": 5886,
      "His": 5887,
      "ios": 5888,
      "light": 5889,
      "rs": 5890,
      "Åĵ": 5891,
      "Ġmatch": 5892,
      "Ġdry": 5893,
      "ĠkÃªu": 5894,
      "Ġrural": 5895,
      "Ġgiáº£ng": 5896,
      "Ġgiáº¥c": 5897,
      "ĠBel": 5898,
      "Ġstation": 5899,
      "Ġweight": 5900,
      "ĠWindows": 5901,
      "ĠTrÃ¡ch": 5902,
      "Ġscreen": 5903,
      "Ġpopular": 5904,
      "Ġtransactions": 5905,
      "Ġáº¤n": 5906,
      "/.": 5907,
      "OS": 5908,
      "UY": 5909,
      "ba": 5910,
      "based": 5911,
      "Ġtáº·ng": 5912,
      "Ġtiá»ģm": 5913,
      "Ġhus": 5914,
      "asc": 5915,
      "Ġeight": 5916,
      "Ġchá»«ng": 5917,
      "iling": 5918,
      "irty": 5919,
      "ĠHIV": 5920,
      "Ġfee": 5921,
      "Ġfollowed": 5922,
      "TrÆ°á»Ŀng": 5923,
      "Ġcharter": 5924,
      "Ġcomplex": 5925,
      "Ġpermit": 5926,
      "iliated": 5927,
      "Ġvehicle": 5928,
      "ground": 5929,
      "nov": 5930,
      "ray": 5931,
      "Ġcáº·p": 5932,
      "Ġcode": 5933,
      "Ġmist": 5934,
      "Ġdai": 5935,
      "ĠtrÆ°Æ¡ng": 5936,
      "Ġtráº¡m": 5937,
      "ĠNÃ´ng": 5938,
      "ĠAct": 5939,
      "ĠBer": 5940,
      "Ġprogress": 5941,
      "angdon": 5942,
      "Ġenfor": 5943,
      "Ġrecomm": 5944,
      "Ġhandle": 5945,
      "Ġattached": 5946,
      "Ġplayed": 5947,
      "Ġideas": 5948,
      "egas": 5949,
      "Ġbalance": 5950,
      "ford": 5951,
      "Ġinh": 5952,
      "Ġball": 5953,
      "Ġwood": 5954,
      "lying": 5955,
      "utif": 5956,
      "Ġdá»įa": 5957,
      "Ġstock": 5958,
      "Ġstrict": 5959,
      "Ġlog": 5960,
      "ĠYes": 5961,
      "ysis": 5962,
      "Ġprevious": 5963,
      "Ġbasic": 5964,
      "Step": 5965,
      "Ġwindow": 5966,
      "Ġfigure": 5967,
      "Ġappropriate": 5968,
      "Yeah": 5969,
      "Ġfast": 5970,
      "Ġpháº«u": 5971,
      "Ġgiving": 5972,
      "Ġsave": 5973,
      "Ġbá»¥ng": 5974,
      "Ġships": 5975,
      "Ġ34": 5976,
      "Ġadvert": 5977,
      "hington": 5978,
      "Ġsuppl": 5979,
      "ĠHá»ĩ": 5980,
      "oo": 5981,
      "Ġcy": 5982,
      "Ġcand": 5983,
      "Ġhers": 5984,
      "inated": 5985,
      "ĠBen": 5986,
      "ĠMiss": 5987,
      "Ġability": 5988,
      "elling": 5989,
      "Ġpermitted": 5990,
      "Ġdetermine": 5991,
      "Ġpressure": 5992,
      "Ġautom": 5993,
      "Ġsam": 5994,
      "ĠvÆ°á»Ŀn": 5995,
      "ani": 5996,
      "Ġquarter": 5997,
      "ĠMad": 5998,
      "ĠPort": 5999
    },
    "merges": [
      [
        "á",
        "»"
      ],
      [
        "Ġ",
        "t"
      ],
      [
        "n",
        "g"
      ],
      [
        "á",
        "º"
      ],
      [
        "Ġ",
        "c"
      ],
      [
        "Ġt",
        "h"
      ],
      [
        "Ġ",
        "Ä"
      ],
      [
        "ĠÄ",
        "ĳ"
      ],
      [
        "Ġ",
        "a"
      ],
      [
        "n",
        "h"
      ],
      [
        "Ġ",
        "s"
      ],
      [
        "Ã",
        "ł"
      ],
      [
        "Ġ",
        "h"
      ],
      [
        "Ġ",
        "b"
      ],
      [
        "Ġ",
        "l"
      ],
      [
        "Ġ",
        "v"
      ],
      [
        "Ġ",
        "m"
      ],
      [
        "e",
        "r"
      ],
      [
        "o",
        "n"
      ],
      [
        "Ġth",
        "e"
      ],
      [
        "Ġ",
        "p"
      ],
      [
        "Æ",
        "°"
      ],
      [
        "Ã",
        "¡"
      ],
      [
        "i",
        "n"
      ],
      [
        "Ġ",
        "o"
      ],
      [
        "Ġ",
        "d"
      ],
      [
        "r",
        "e"
      ],
      [
        "Ġc",
        "h"
      ],
      [
        "Ġ",
        "k"
      ],
      [
        "Ġ",
        "n"
      ],
      [
        "a",
        "t"
      ],
      [
        "e",
        "n"
      ],
      [
        "i",
        "á»"
      ],
      [
        "a",
        "n"
      ],
      [
        "Ã",
        "´"
      ],
      [
        "Ġt",
        "r"
      ],
      [
        "Ġ",
        "g"
      ],
      [
        "Ġ",
        "w"
      ],
      [
        "Æ°",
        "á»"
      ],
      [
        "e",
        "s"
      ],
      [
        "i",
        "t"
      ],
      [
        "o",
        "r"
      ],
      [
        "áº",
        "¿"
      ],
      [
        "Ġ",
        "nh"
      ],
      [
        "i",
        "s"
      ],
      [
        "Ġo",
        "f"
      ],
      [
        "e",
        "d"
      ],
      [
        "n",
        "d"
      ],
      [
        "o",
        "u"
      ],
      [
        "Ã",
        "³"
      ],
      [
        "áº",
        "¡"
      ],
      [
        "a",
        "l"
      ],
      [
        "i",
        "ng"
      ],
      [
        "Ġ",
        "f"
      ],
      [
        "áº",
        "£"
      ],
      [
        "ĠÄĳ",
        "á»"
      ],
      [
        "Ġk",
        "h"
      ],
      [
        "Ġt",
        "o"
      ],
      [
        "Ġ",
        "ng"
      ],
      [
        "Ġp",
        "h"
      ],
      [
        "i",
        "on"
      ],
      [
        "Ġa",
        "nd"
      ],
      [
        "Ġ",
        "in"
      ],
      [
        "q",
        "u"
      ],
      [
        "a",
        "r"
      ],
      [
        "áº",
        "¥"
      ],
      [
        "Ã",
        "ª"
      ],
      [
        "á»",
        "Ļ"
      ],
      [
        "i",
        "c"
      ],
      [
        "Ã´",
        "ng"
      ],
      [
        "Ġ",
        "qu"
      ],
      [
        "Ġv",
        "Ãł"
      ],
      [
        "Ã¡",
        "c"
      ],
      [
        "Ġc",
        "á»"
      ],
      [
        "iá»",
        "ĩ"
      ],
      [
        "r",
        "o"
      ],
      [
        "en",
        "t"
      ],
      [
        "á»",
        "ĳ"
      ],
      [
        "Ġ",
        "T"
      ],
      [
        "Ġv",
        "á»"
      ],
      [
        "Ã",
        "¢"
      ],
      [
        "Ġ",
        "\""
      ],
      [
        "áº",
        "Ń"
      ],
      [
        "l",
        "e"
      ],
      [
        "a",
        "s"
      ],
      [
        "Ġ",
        "r"
      ],
      [
        "Ã",
        "¬"
      ],
      [
        "Ġth",
        "á»"
      ],
      [
        "Ãª",
        "n"
      ],
      [
        "Æ",
        "¡"
      ],
      [
        "Ġ",
        "C"
      ],
      [
        "c",
        "h"
      ],
      [
        "§",
        "a"
      ],
      [
        "Ġcá»",
        "§a"
      ],
      [
        "Ġ",
        "y"
      ],
      [
        "Ġ",
        "re"
      ],
      [
        "Ġl",
        "Ãł"
      ],
      [
        "c",
        "t"
      ],
      [
        "Ġ",
        "e"
      ],
      [
        "a",
        "y"
      ],
      [
        "o",
        "m"
      ],
      [
        "Ġt",
        "á»"
      ],
      [
        "Ġg",
        "i"
      ],
      [
        "áº",
        "§"
      ],
      [
        "u",
        "s"
      ],
      [
        "e",
        "t"
      ],
      [
        "Ġc",
        "Ã³"
      ],
      [
        "Æ°á»",
        "Ŀ"
      ],
      [
        "l",
        "l"
      ],
      [
        "at",
        "ion"
      ],
      [
        "Ã",
        "Ń"
      ],
      [
        "Ġh",
        "á»"
      ],
      [
        "Æ°á»",
        "£"
      ],
      [
        "v",
        "e"
      ],
      [
        "Ġ",
        "x"
      ],
      [
        "i",
        "áº¿"
      ],
      [
        "Ľ",
        "i"
      ],
      [
        "Ġch",
        "á»"
      ],
      [
        "Ġy",
        "ou"
      ],
      [
        "Ġc",
        "Ã¡c"
      ],
      [
        "á»Ļ",
        "t"
      ],
      [
        "Ã´",
        "i"
      ],
      [
        "i",
        "d"
      ],
      [
        "áº¡",
        "i"
      ],
      [
        "Ã",
        "£"
      ],
      [
        "Ã",
        "º"
      ],
      [
        "Ä",
        "ĥ"
      ],
      [
        "i",
        "m"
      ],
      [
        "Ġ",
        "I"
      ],
      [
        "a",
        "m"
      ],
      [
        "Ġ",
        "1"
      ],
      [
        "u",
        "y"
      ],
      [
        "l",
        "y"
      ],
      [
        "u",
        "t"
      ],
      [
        "áº¥",
        "t"
      ],
      [
        "Ġb",
        "e"
      ],
      [
        "Ġf",
        "or"
      ],
      [
        "o",
        "ng"
      ],
      [
        "Ġ",
        "N"
      ],
      [
        "Ġm",
        "á»Ļt"
      ],
      [
        "h",
        "e"
      ],
      [
        "Æ°á»£",
        "c"
      ],
      [
        "Ġ",
        "on"
      ],
      [
        "Ġ",
        "S"
      ],
      [
        "Ġ",
        "A"
      ],
      [
        "iá»",
        "ģ"
      ],
      [
        "m",
        "ent"
      ],
      [
        "Ġkh",
        "Ã´ng"
      ],
      [
        "Ġd",
        "á»"
      ],
      [
        "c",
        "e"
      ],
      [
        "o",
        "t"
      ],
      [
        "ĠÄĳ",
        "Æ°á»£c"
      ],
      [
        "Ãł",
        "y"
      ],
      [
        "Ġ",
        "B"
      ],
      [
        "Ġh",
        "o"
      ],
      [
        ".",
        "."
      ],
      [
        "a",
        "d"
      ],
      [
        "u",
        "r"
      ],
      [
        "Ġ",
        "M"
      ],
      [
        "Ġs",
        "á»"
      ],
      [
        "i",
        "g"
      ],
      [
        "Ġc",
        "on"
      ],
      [
        "s",
        "t"
      ],
      [
        "Ġw",
        "h"
      ],
      [
        "Ã¢",
        "n"
      ],
      [
        "áº£",
        "n"
      ],
      [
        "Ã¬",
        "nh"
      ],
      [
        "o",
        "w"
      ],
      [
        "áº",
        "¯"
      ],
      [
        "Æ°á»Ŀ",
        "i"
      ],
      [
        "Ġp",
        "ro"
      ],
      [
        "á»",
        "¯"
      ],
      [
        "ĠÄĳá»",
        "ĭ"
      ],
      [
        "Ġtr",
        "ong"
      ],
      [
        "Ġo",
        "r"
      ],
      [
        "Ġ",
        "P"
      ],
      [
        "Ġ",
        "2"
      ],
      [
        "Ġ",
        "is"
      ],
      [
        "iá»ģ",
        "u"
      ],
      [
        "áº",
        "·"
      ],
      [
        "i",
        "l"
      ],
      [
        "Ġng",
        "h"
      ],
      [
        "i",
        "r"
      ],
      [
        "it",
        "h"
      ],
      [
        "Æ°á»",
        "Ľ"
      ],
      [
        "Ãł",
        "nh"
      ],
      [
        "Ġvá»",
        "Ľi"
      ],
      [
        "iá»ĩ",
        "n"
      ],
      [
        "0",
        "0"
      ],
      [
        "Ġ",
        "H"
      ],
      [
        "Ġth",
        "at"
      ],
      [
        "áº£",
        "i"
      ],
      [
        "Ġs",
        "t"
      ],
      [
        "á»",
        "Ł"
      ],
      [
        "o",
        "l"
      ],
      [
        "áº¡",
        "n"
      ],
      [
        "Ġch",
        "o"
      ],
      [
        "iá»",
        "ĥ"
      ],
      [
        "er",
        "s"
      ],
      [
        "Ġt",
        "Ã´i"
      ],
      [
        "Ġqu",
        "y"
      ],
      [
        "Ġng",
        "Æ°á»Ŀi"
      ],
      [
        "Ġt",
        "a"
      ],
      [
        "Ġa",
        "s"
      ],
      [
        "Ġ",
        "("
      ],
      [
        "Ġd",
        "o"
      ],
      [
        "Ġw",
        "ith"
      ],
      [
        "Ġl",
        "á»"
      ],
      [
        "ĠÄĳá»ĭ",
        "nh"
      ],
      [
        "i",
        "f"
      ],
      [
        "±",
        "c"
      ],
      [
        "s",
        "e"
      ],
      [
        "u",
        "l"
      ],
      [
        "Ġs",
        "a"
      ],
      [
        "ĠÄĳ",
        "Ã£"
      ],
      [
        "Ġ",
        "it"
      ],
      [
        "t",
        "h"
      ],
      [
        "i",
        "Ãªn"
      ],
      [
        "Ġb",
        "á»"
      ],
      [
        "t",
        "er"
      ],
      [
        "©",
        "c"
      ],
      [
        "áº§",
        "u"
      ],
      [
        "Ġ",
        "D"
      ],
      [
        "v",
        "er"
      ],
      [
        "'",
        "s"
      ],
      [
        "Ġ",
        "u"
      ],
      [
        "áº¥",
        "y"
      ],
      [
        "Æ°á»Ľ",
        "c"
      ],
      [
        "a",
        "ng"
      ],
      [
        "Ġa",
        "n"
      ],
      [
        "er",
        "e"
      ],
      [
        "e",
        "c"
      ],
      [
        "Ġh",
        "a"
      ],
      [
        "á»¯",
        "ng"
      ],
      [
        "Ġs",
        "h"
      ],
      [
        "i",
        "es"
      ],
      [
        "at",
        "e"
      ],
      [
        "áº§",
        "n"
      ],
      [
        "Ġ",
        "V"
      ],
      [
        "Ġth",
        "u"
      ],
      [
        "Ġnh",
        "Æ°"
      ],
      [
        "áº¿",
        "t"
      ],
      [
        "Ġthá»",
        "ĥ"
      ],
      [
        "Ġ",
        "L"
      ],
      [
        "Ã",
        "½"
      ],
      [
        "es",
        "t"
      ],
      [
        "Ġh",
        "e"
      ],
      [
        "Ġn",
        "Ã³"
      ],
      [
        "Æ°",
        "Æ¡"
      ],
      [
        "Ã",
        "²"
      ],
      [
        "áºŃ",
        "t"
      ],
      [
        "Ãº",
        "ng"
      ],
      [
        "is",
        "t"
      ],
      [
        "Ãł",
        "i"
      ],
      [
        "Ġs",
        "u"
      ],
      [
        "ĠÄĳá»",
        "Ļ"
      ],
      [
        "Ġnh",
        "á»¯ng"
      ],
      [
        "Æ°á»Ŀ",
        "ng"
      ],
      [
        "Ġn",
        "Ãły"
      ],
      [
        "Ġm",
        "á»"
      ],
      [
        "©",
        "ng"
      ],
      [
        "±",
        "ng"
      ],
      [
        "a",
        "g"
      ],
      [
        "Ã",
        "¹"
      ],
      [
        "Ġc",
        "om"
      ],
      [
        "Ã¢",
        "y"
      ],
      [
        "Ġw",
        "as"
      ],
      [
        "Ġn",
        "Äĥ"
      ],
      [
        "ÃŃ",
        "nh"
      ],
      [
        "ĠÄĳ",
        "Ã³"
      ],
      [
        "p",
        "p"
      ],
      [
        "Ġ",
        "G"
      ],
      [
        "al",
        "l"
      ],
      [
        "l",
        "d"
      ],
      [
        "e",
        "m"
      ],
      [
        "an",
        "d"
      ],
      [
        "a",
        "o"
      ],
      [
        "o",
        "d"
      ],
      [
        "a",
        "nh"
      ],
      [
        "áºŃ",
        "n"
      ],
      [
        "áº",
        "½"
      ],
      [
        "ĠÄĳá»",
        "ĥ"
      ],
      [
        "Æ°Æ¡",
        "ng"
      ],
      [
        "áº¿",
        "n"
      ],
      [
        "Ġvá»",
        "ģ"
      ],
      [
        "Ġr",
        "a"
      ],
      [
        "i",
        "nh"
      ],
      [
        "ĠÄ",
        "Ĳ"
      ],
      [
        "o",
        "p"
      ],
      [
        "e",
        "ct"
      ],
      [
        "Ġc",
        "Ã´ng"
      ],
      [
        "Ã¡",
        "n"
      ],
      [
        "Ġtr",
        "á»"
      ],
      [
        "Ġl",
        "o"
      ],
      [
        "Ġhá»",
        "į"
      ],
      [
        "Ãł",
        "ng"
      ],
      [
        "Ġe",
        "x"
      ],
      [
        "uy",
        "á»"
      ],
      [
        "Ġkh",
        "i"
      ],
      [
        "i",
        "ll"
      ],
      [
        "us",
        "t"
      ],
      [
        "Ġph",
        "Ã¡"
      ],
      [
        "o",
        "re"
      ],
      [
        "k",
        "e"
      ],
      [
        "a",
        "in"
      ],
      [
        "an",
        "t"
      ],
      [
        "áº",
        "©"
      ],
      [
        "Ġg",
        "iá»"
      ],
      [
        "Ġs",
        "á»ĳ"
      ],
      [
        "ĠC",
        "h"
      ],
      [
        "áºŃ",
        "p"
      ],
      [
        "Ŀ",
        "i"
      ],
      [
        "Ġb",
        "áº¡n"
      ],
      [
        "es",
        "s"
      ],
      [
        "Ġtá»",
        "«"
      ],
      [
        "Ġa",
        "re"
      ],
      [
        "ĠT",
        "h"
      ],
      [
        "re",
        "s"
      ],
      [
        "iáº¿",
        "t"
      ],
      [
        "Ġ",
        "K"
      ],
      [
        "Ġa",
        "t"
      ],
      [
        "e",
        "l"
      ],
      [
        "i",
        "v"
      ],
      [
        "or",
        "t"
      ],
      [
        "ig",
        "h"
      ],
      [
        "áº·",
        "c"
      ],
      [
        "iá»ĩ",
        "c"
      ],
      [
        "Ġph",
        "áº£i"
      ],
      [
        "Ġqu",
        "an"
      ],
      [
        "Ġ",
        "á»Ł"
      ],
      [
        "it",
        "y"
      ],
      [
        "ĠvÃł",
        "o"
      ],
      [
        "ĠnÄĥ",
        "m"
      ],
      [
        "ĠÄĳ",
        "áº¿n"
      ],
      [
        "a",
        "b"
      ],
      [
        "áº",
        "±ng"
      ],
      [
        "Ġs",
        "áº½"
      ],
      [
        "Ġthe",
        "o"
      ],
      [
        "a",
        "c"
      ],
      [
        "Ġ",
        "'"
      ],
      [
        "u",
        "ng"
      ],
      [
        "Ġc",
        "áº£"
      ],
      [
        "á»",
        "ĵ"
      ],
      [
        "Æ¡",
        "n"
      ],
      [
        "Ãł",
        "n"
      ],
      [
        "Ġ",
        "R"
      ],
      [
        "ĠlÃł",
        "m"
      ],
      [
        "Ġb",
        "y"
      ],
      [
        "¥",
        "c"
      ],
      [
        "Ġn",
        "ot"
      ],
      [
        "Ġw",
        "e"
      ],
      [
        "r",
        "i"
      ],
      [
        "Ġ",
        "F"
      ],
      [
        "Ġth",
        "is"
      ],
      [
        "Ã",
        "©"
      ],
      [
        "Ġv",
        "iá»ĩc"
      ],
      [
        "u",
        "á»ĳ"
      ],
      [
        "ĠÄĳ",
        "áº§u"
      ],
      [
        "ro",
        "m"
      ],
      [
        "Ã¡",
        "o"
      ],
      [
        "Ġch",
        "Ãºng"
      ],
      [
        "Ã¡",
        "ng"
      ],
      [
        "Ã¡",
        "i"
      ],
      [
        "u",
        "m"
      ],
      [
        "Ġm",
        "e"
      ],
      [
        "\\",
        "'"
      ],
      [
        "Ġd",
        "e"
      ],
      [
        "£",
        "p"
      ],
      [
        "iá»ĥ",
        "m"
      ],
      [
        "Ġh",
        "iá»ĩn"
      ],
      [
        "Ġt",
        "áº¡i"
      ],
      [
        "ar",
        "t"
      ],
      [
        "g",
        "h"
      ],
      [
        "Ä",
        "©"
      ],
      [
        "r",
        "a"
      ],
      [
        "Ġthá»",
        "±c"
      ],
      [
        "Ġhá»",
        "£p"
      ],
      [
        "áº¥",
        "p"
      ],
      [
        "Ġ",
        "W"
      ],
      [
        "Ġsá»",
        "±"
      ],
      [
        "i",
        "al"
      ],
      [
        "Ġdá»",
        "¥"
      ],
      [
        "Ġ",
        "E"
      ],
      [
        "ĠÄĳá»Ļ",
        "ng"
      ],
      [
        "iáº¿",
        "n"
      ],
      [
        "Ġl",
        "áº¡i"
      ],
      [
        "igh",
        "t"
      ],
      [
        "Ġyou",
        "r"
      ],
      [
        "Ġf",
        "rom"
      ],
      [
        "i",
        "z"
      ],
      [
        "Ä",
        "Ĳ"
      ],
      [
        "Ġh",
        "Ãłnh"
      ],
      [
        "Ġha",
        "ve"
      ],
      [
        "o",
        "s"
      ],
      [
        "Ġn",
        "Æ°á»Ľc"
      ],
      [
        "á»Ļ",
        "i"
      ],
      [
        "Ġc",
        "Æ¡"
      ],
      [
        "en",
        "d"
      ],
      [
        "Ġs",
        "o"
      ],
      [
        "Ġs",
        "e"
      ],
      [
        "u",
        "n"
      ],
      [
        "i",
        "ve"
      ],
      [
        "0",
        "1"
      ],
      [
        "Ã¹",
        "ng"
      ],
      [
        "ou",
        "ld"
      ],
      [
        "Ġ",
        "3"
      ],
      [
        "ar",
        "d"
      ],
      [
        "ation",
        "s"
      ],
      [
        "ĠT",
        "he"
      ],
      [
        "a",
        "i"
      ],
      [
        "Ġdá»¥",
        "ng"
      ],
      [
        "Ġkh",
        "Ã¡c"
      ],
      [
        "Ġm",
        "Ãł"
      ],
      [
        "Ġth",
        "Ãłnh"
      ],
      [
        "Ġng",
        "Ãły"
      ],
      [
        "Ġn",
        "e"
      ],
      [
        "Ãł",
        "o"
      ],
      [
        "r",
        "y"
      ],
      [
        "áº£",
        "o"
      ],
      [
        "ģ",
        "n"
      ],
      [
        "Ġsh",
        "all"
      ],
      [
        "Ġnh",
        "Ãł"
      ],
      [
        "Ġkh",
        "o"
      ],
      [
        "ĠÄĳ",
        "iá»ģu"
      ],
      [
        "Ġg",
        "o"
      ],
      [
        "Ġl",
        "e"
      ],
      [
        "Ġl",
        "Ã½"
      ],
      [
        "á»Ļ",
        "c"
      ],
      [
        "Ġchá»",
        "ī"
      ],
      [
        "á»",
        "ķ"
      ],
      [
        "Ġa",
        "nh"
      ],
      [
        "Ġcom",
        "p"
      ],
      [
        "ĠnÃ³",
        "i"
      ],
      [
        "T",
        "he"
      ],
      [
        "n",
        "t"
      ],
      [
        "á»ĳ",
        "i"
      ],
      [
        "us",
        "e"
      ],
      [
        "u",
        "d"
      ],
      [
        "Ġbá»",
        "ĭ"
      ],
      [
        "áº¿",
        "u"
      ],
      [
        "an",
        "ce"
      ],
      [
        "ĠÄĳá»",
        "ĵ"
      ],
      [
        "Ġch",
        "ÃŃnh"
      ],
      [
        "Ġho",
        "áº·c"
      ],
      [
        "ion",
        "s"
      ],
      [
        "Ãª",
        "u"
      ],
      [
        "Ġtr",
        "Ãªn"
      ],
      [
        "a",
        "p"
      ],
      [
        "Ġ",
        ":"
      ],
      [
        "iá»ĩ",
        "u"
      ],
      [
        "á»",
        "§"
      ],
      [
        "áº¡",
        "t"
      ],
      [
        "Ġ",
        "O"
      ],
      [
        "Ġw",
        "or"
      ],
      [
        "áº",
        "«"
      ],
      [
        "Ġs",
        "p"
      ],
      [
        "u",
        "re"
      ],
      [
        "i",
        "p"
      ],
      [
        "Ġchá»",
        "©c"
      ],
      [
        "ag",
        "e"
      ],
      [
        "r",
        "t"
      ],
      [
        "'",
        "t"
      ],
      [
        "Ġh",
        "Ãłng"
      ],
      [
        "i",
        "a"
      ],
      [
        "Ġk",
        "á»"
      ],
      [
        "Ġnh",
        "Ã¢n"
      ],
      [
        "Ġp",
        "l"
      ],
      [
        "u",
        "ct"
      ],
      [
        "Ġc",
        "an"
      ],
      [
        "Ġ",
        "J"
      ],
      [
        "Ġa",
        "g"
      ],
      [
        "Ġ",
        "j"
      ],
      [
        "ĠÄĳá»",
        "ĳ"
      ],
      [
        "Ġa",
        "b"
      ],
      [
        "Ġtá»",
        "ķ"
      ],
      [
        "c",
        "c"
      ],
      [
        "an",
        "s"
      ],
      [
        "Äĥ",
        "n"
      ],
      [
        "T",
        "h"
      ],
      [
        "ic",
        "e"
      ],
      [
        "Ġ",
        "im"
      ],
      [
        "Ġngh",
        "iá»ĩ"
      ],
      [
        "ou",
        "t"
      ],
      [
        "at",
        "ed"
      ],
      [
        "..",
        "."
      ],
      [
        "Ġa",
        "l"
      ],
      [
        "Ġt",
        "Æ°"
      ],
      [
        "Ġsa",
        "u"
      ],
      [
        "Ã¡c",
        "h"
      ],
      [
        "ic",
        "h"
      ],
      [
        "e",
        "p"
      ],
      [
        "Ġa",
        "ll"
      ],
      [
        "ÃŃ",
        "ch"
      ],
      [
        "i",
        "e"
      ],
      [
        "Ġh",
        "is"
      ],
      [
        "Ġm",
        "an"
      ],
      [
        "ĠÄĳ",
        "i"
      ],
      [
        "a",
        "u"
      ],
      [
        "Ġc",
        "áº¥p"
      ],
      [
        "ĭ",
        "ch"
      ],
      [
        "Ġnh",
        "áºŃn"
      ],
      [
        "Ġ1",
        "9"
      ],
      [
        "áº¯",
        "t"
      ],
      [
        "á»ĳ",
        "c"
      ],
      [
        "Ġvá»",
        "¥"
      ],
      [
        "Ġ",
        "Ã´ng"
      ],
      [
        "ĠÄĳá»ĵ",
        "ng"
      ],
      [
        "p",
        "er"
      ],
      [
        "Å",
        "©ng"
      ],
      [
        "Ġsá»",
        "Ń"
      ],
      [
        "or",
        "d"
      ],
      [
        "Ġgi",
        "Ã¡"
      ],
      [
        "om",
        "e"
      ],
      [
        "p",
        "ort"
      ],
      [
        "i",
        "re"
      ],
      [
        "Ã¢",
        "u"
      ],
      [
        "id",
        "e"
      ],
      [
        "ou",
        "r"
      ],
      [
        "uyá»",
        "ĩ"
      ],
      [
        "Ġg",
        "Ã¬"
      ],
      [
        "o",
        "k"
      ],
      [
        "im",
        "e"
      ],
      [
        "Ġa",
        "pp"
      ],
      [
        "Ġl",
        "u"
      ],
      [
        "Ġh",
        "Æ¡n"
      ],
      [
        "Ã²",
        "ng"
      ],
      [
        "Ġth",
        "áº¿"
      ],
      [
        "Æ°á»£",
        "ng"
      ],
      [
        "iá»ĩ",
        "t"
      ],
      [
        "Ġthe",
        "y"
      ],
      [
        "Ã¡",
        "t"
      ],
      [
        "Ġth",
        "Ã´ng"
      ],
      [
        "Ġthá»",
        "Ŀi"
      ],
      [
        "Ġcon",
        "t"
      ],
      [
        "Ġt",
        "iáº¿"
      ],
      [
        "in",
        "e"
      ],
      [
        "Ã¡",
        "nh"
      ],
      [
        "Ġm",
        "Ã¬nh"
      ],
      [
        "Ġth",
        "Ã¬"
      ],
      [
        "h",
        "er"
      ],
      [
        "Ġtr",
        "Ã¬nh"
      ],
      [
        "áº·",
        "t"
      ],
      [
        "ĥ",
        "n"
      ],
      [
        "ĠT",
        "r"
      ],
      [
        "Ġs",
        "áº£n"
      ],
      [
        "Ġo",
        "ut"
      ],
      [
        "b",
        "er"
      ],
      [
        "ig",
        "n"
      ],
      [
        "or",
        "m"
      ],
      [
        "rt",
        "ic"
      ],
      [
        "r",
        "ou"
      ],
      [
        "ĠÄĳá»",
        "ģ"
      ],
      [
        "Ġc",
        "Å©ng"
      ],
      [
        "Äĥ",
        "ng"
      ],
      [
        "Ġc",
        "Ã´"
      ],
      [
        "á»ĳ",
        "ng"
      ],
      [
        "ĠÄĳ",
        "ang"
      ],
      [
        "f",
        "f"
      ],
      [
        "ĠÄĳá»ĳ",
        "i"
      ],
      [
        "Æ°á»",
        "Ł"
      ],
      [
        "Ġre",
        "s"
      ],
      [
        "Ġth",
        "Ã¡ng"
      ],
      [
        "áº¡",
        "o"
      ],
      [
        "Ġb",
        "áº£o"
      ],
      [
        "Ġu",
        "p"
      ],
      [
        "Ġb",
        "ut"
      ],
      [
        "al",
        "ly"
      ],
      [
        "ĠphÃ¡",
        "p"
      ],
      [
        "Æ°á»Ł",
        "ng"
      ],
      [
        "th",
        "er"
      ],
      [
        "Ġb",
        "iáº¿t"
      ],
      [
        "on",
        "e"
      ],
      [
        "Ġm",
        "a"
      ],
      [
        "Ġth",
        "áº¥y"
      ],
      [
        "Ġv",
        "i"
      ],
      [
        "áº©",
        "m"
      ],
      [
        "Ġtr",
        "Æ°á»Ŀng"
      ],
      [
        "Ġgi",
        "a"
      ],
      [
        "Ġx",
        "u"
      ],
      [
        "as",
        "t"
      ],
      [
        "Ġm",
        "y"
      ],
      [
        "a",
        "re"
      ],
      [
        "Ġ",
        "Q"
      ],
      [
        "á»",
        "ģn"
      ],
      [
        "Ġhá»į",
        "c"
      ],
      [
        "o",
        "c"
      ],
      [
        "Ġa",
        "d"
      ],
      [
        "Ġe",
        "m"
      ],
      [
        "ac",
        "k"
      ],
      [
        "áº«",
        "n"
      ],
      [
        "Ġh",
        "ad"
      ],
      [
        "rtic",
        "le"
      ],
      [
        "Ġnghiá»ĩ",
        "p"
      ],
      [
        "Æ°",
        "a"
      ],
      [
        "Æ¡",
        "i"
      ],
      [
        "00",
        "0"
      ],
      [
        "Ġh",
        "er"
      ],
      [
        "Ġngh",
        "Ä©"
      ],
      [
        "áº¯",
        "c"
      ],
      [
        "Ġt",
        "e"
      ],
      [
        "ve",
        "l"
      ],
      [
        "en",
        "c"
      ],
      [
        "am",
        "e"
      ],
      [
        "Ġb",
        "áº£n"
      ],
      [
        "Ġngh",
        "á»"
      ],
      [
        "á»",
        "Ń"
      ],
      [
        "it",
        "ies"
      ],
      [
        "k",
        "ing"
      ],
      [
        "Ġ",
        "5"
      ],
      [
        "Ġnh",
        "áº¥t"
      ],
      [
        "uy",
        "Ãªn"
      ],
      [
        "iá»ĥ",
        "n"
      ],
      [
        "Ġk",
        "n"
      ],
      [
        "ĠcÃ¡c",
        "h"
      ],
      [
        "Ãº",
        "c"
      ],
      [
        "ĠphÃ¡",
        "t"
      ],
      [
        "Ġc",
        "o"
      ],
      [
        "Ġl",
        "i"
      ],
      [
        "Ġre",
        "g"
      ],
      [
        "Ġr",
        "áº±ng"
      ],
      [
        "Ġa",
        "cc"
      ],
      [
        "Ġwh",
        "ich"
      ],
      [
        "ĠnhÆ°",
        "ng"
      ],
      [
        "it",
        "t"
      ],
      [
        "a",
        "w"
      ],
      [
        "Ġthe",
        "ir"
      ],
      [
        "Ġ",
        ")"
      ],
      [
        "į",
        "i"
      ],
      [
        "Ġ",
        "4"
      ],
      [
        "re",
        "e"
      ],
      [
        "Ġin",
        "t"
      ],
      [
        "a",
        "ch"
      ],
      [
        "is",
        "h"
      ],
      [
        "Ã²",
        "n"
      ],
      [
        "Ġxu",
        "áº¥t"
      ],
      [
        "Ġt",
        "in"
      ],
      [
        "Ġpro",
        "v"
      ],
      [
        "in",
        "d"
      ],
      [
        "iá»ģ",
        "n"
      ],
      [
        "..",
        ".."
      ],
      [
        "áº",
        "»"
      ],
      [
        "Ġ",
        "us"
      ],
      [
        "Ġp",
        "er"
      ],
      [
        "ĠS",
        "t"
      ],
      [
        "Ġn",
        "Ãło"
      ],
      [
        "ĠN",
        "h"
      ],
      [
        "e",
        "ar"
      ],
      [
        "Ġ",
        "\\'"
      ],
      [
        "Ġon",
        "e"
      ],
      [
        "Ġquy",
        "á»ģn"
      ],
      [
        "Ġnh",
        "iá»ģu"
      ],
      [
        "á»ĵ",
        "i"
      ],
      [
        "ĠÄĳ",
        "Ã¢y"
      ],
      [
        "Ġng",
        "o"
      ],
      [
        "áº¥",
        "n"
      ],
      [
        "Ã´",
        "n"
      ],
      [
        "ou",
        "s"
      ],
      [
        "i",
        "b"
      ],
      [
        "Ġb",
        "áº±ng"
      ],
      [
        "ic",
        "al"
      ],
      [
        "e",
        "op"
      ],
      [
        "en",
        "s"
      ],
      [
        "ĠP",
        "h"
      ],
      [
        "ar",
        "y"
      ],
      [
        "k",
        "s"
      ],
      [
        "g",
        "an"
      ],
      [
        "ul",
        "t"
      ],
      [
        "iá»ĩ",
        "m"
      ],
      [
        "â",
        "Ģ"
      ],
      [
        "l",
        "ic"
      ],
      [
        "ou",
        "nt"
      ],
      [
        "áºŃ",
        "y"
      ],
      [
        "Ġu",
        "n"
      ],
      [
        "o",
        "g"
      ],
      [
        "Ġab",
        "out"
      ],
      [
        "Ġ",
        "Y"
      ],
      [
        "Ġcá»",
        "©"
      ],
      [
        "Ã¢",
        "m"
      ],
      [
        "u",
        "e"
      ],
      [
        "a",
        "use"
      ],
      [
        "Ġt",
        "Ãłi"
      ],
      [
        "ment",
        "s"
      ],
      [
        "Ġ",
        "if"
      ],
      [
        "Ġwh",
        "o"
      ],
      [
        "áº¡",
        "m"
      ],
      [
        "eop",
        "le"
      ],
      [
        "uá»ĳ",
        "n"
      ],
      [
        "Ġtr",
        "Æ°á»Ľc"
      ],
      [
        "p",
        "t"
      ],
      [
        "uyá»ĩ",
        "n"
      ],
      [
        "Ġw",
        "ill"
      ],
      [
        "Ġdo",
        "anh"
      ],
      [
        "Ġ",
        "áº¥y"
      ],
      [
        "Ġh",
        "Ã¬nh"
      ],
      [
        "Ġb",
        "á»Ļ"
      ],
      [
        "á»",
        "ı"
      ],
      [
        "Ġthe",
        "m"
      ],
      [
        "Ġb",
        "an"
      ],
      [
        "f",
        "orm"
      ],
      [
        "Ġv",
        "Ã¬"
      ],
      [
        "Ġin",
        "v"
      ],
      [
        "in",
        "ist"
      ],
      [
        "Ġ",
        "U"
      ],
      [
        "iá»ĥ",
        "u"
      ],
      [
        "Ġs",
        "he"
      ],
      [
        "Ġ2",
        "01"
      ],
      [
        "as",
        "e"
      ],
      [
        "Ġt",
        "áº¿"
      ],
      [
        "áº¯",
        "n"
      ],
      [
        "Ġkn",
        "ow"
      ],
      [
        "p",
        "l"
      ],
      [
        "Ġl",
        "Ãªn"
      ],
      [
        "nd",
        "er"
      ],
      [
        "âĢ",
        "¦"
      ],
      [
        "Ġtr",
        "a"
      ],
      [
        "Ġdá»",
        "±"
      ],
      [
        "Ġw",
        "ere"
      ],
      [
        "Ġk",
        "áº¿t"
      ],
      [
        "Ġc",
        "l"
      ],
      [
        "Ġph",
        "ÃŃ"
      ],
      [
        "Ġtá»",
        "±"
      ],
      [
        "Ġk",
        "inh"
      ],
      [
        "u",
        "á»Ļc"
      ],
      [
        "áº¥",
        "u"
      ],
      [
        "Ġqu",
        "áº£n"
      ],
      [
        "Ġf",
        "e"
      ],
      [
        "ĠK",
        "h"
      ],
      [
        "Ġo",
        "ther"
      ],
      [
        "ĠB",
        "á»Ļ"
      ],
      [
        "u",
        "b"
      ],
      [
        "Ġc",
        "Ã²n"
      ],
      [
        "C",
        "h"
      ],
      [
        "a",
        "ct"
      ],
      [
        "Ġa",
        "ct"
      ],
      [
        "Ġquy",
        "áº¿t"
      ],
      [
        "f",
        "er"
      ],
      [
        "Ġt",
        "ime"
      ],
      [
        "Ġho",
        "áº¡t"
      ],
      [
        "Ġwh",
        "at"
      ],
      [
        "Ġv",
        "iÃªn"
      ],
      [
        "er",
        "v"
      ],
      [
        "Ġc",
        "áº§n"
      ],
      [
        "Ġc",
        "Ã¡i"
      ],
      [
        "Ġth",
        "ere"
      ],
      [
        "áº¡",
        "ch"
      ],
      [
        "v",
        "en"
      ],
      [
        "Ġin",
        "c"
      ],
      [
        "áº£",
        "ng"
      ],
      [
        "Ġ",
        "á»"
      ],
      [
        "at",
        "er"
      ],
      [
        "Ì",
        "ģ"
      ],
      [
        "j",
        "ect"
      ],
      [
        "Ġli",
        "ke"
      ],
      [
        "Ġ",
        "Ã¡n"
      ],
      [
        "ĠI",
        "n"
      ],
      [
        "áº£",
        "m"
      ],
      [
        "in",
        "t"
      ],
      [
        "if",
        "ic"
      ],
      [
        "o",
        "st"
      ],
      [
        "Ġnh",
        "iá»ĩm"
      ],
      [
        "Ġh",
        "im"
      ],
      [
        "Ġm",
        "uá»ĳn"
      ],
      [
        "Ġd",
        "is"
      ],
      [
        "Ġd",
        "Ã¢n"
      ],
      [
        "Ġqu",
        "a"
      ],
      [
        "áºŃ",
        "u"
      ],
      [
        "i",
        "Ãªu"
      ],
      [
        "Ġ",
        "ent"
      ],
      [
        "en",
        "ce"
      ],
      [
        "Ġchá»",
        "©ng"
      ],
      [
        "ĠÄĳá»",
        "ķ"
      ],
      [
        "Ġwh",
        "en"
      ],
      [
        "on",
        "s"
      ],
      [
        "Ġl",
        "iÃªn"
      ],
      [
        "o",
        "se"
      ],
      [
        "Ġk",
        "iá»ĥm"
      ],
      [
        "Ġsá»",
        "Ł"
      ],
      [
        "Ġdá»",
        "ĭch"
      ],
      [
        "Ġph",
        "á»"
      ],
      [
        "Ġh",
        "á»Ļi"
      ],
      [
        "Ġd",
        "ec"
      ],
      [
        "i",
        "et"
      ],
      [
        "į",
        "ng"
      ],
      [
        "Ã¡",
        "p"
      ],
      [
        "ation",
        "al"
      ],
      [
        "Ġtiáº¿",
        "p"
      ],
      [
        "gan",
        "iz"
      ],
      [
        "Ġu",
        "nder"
      ],
      [
        "Ã³",
        "a"
      ],
      [
        "Ġc",
        "Ã¹ng"
      ],
      [
        "Ġha",
        "i"
      ],
      [
        "Ġb",
        "Ã¡o"
      ],
      [
        "Ġm",
        "ore"
      ],
      [
        "Ġt",
        "iá»ģn"
      ],
      [
        "Ġf",
        "o"
      ],
      [
        "ĠÄĲ",
        "iá»ģu"
      ],
      [
        "áº",
        "¹"
      ],
      [
        "uyá»",
        "ĥn"
      ],
      [
        "a",
        "ce"
      ],
      [
        "Ġhá»",
        "ĵ"
      ],
      [
        "Ġan",
        "y"
      ],
      [
        "Ġp",
        "art"
      ],
      [
        "Ġm",
        "u"
      ],
      [
        "Ġw",
        "ould"
      ],
      [
        "Ġph",
        "áº§n"
      ],
      [
        "ay",
        "s"
      ],
      [
        "Ġp",
        "res"
      ],
      [
        "ab",
        "le"
      ],
      [
        "g",
        "e"
      ],
      [
        "r",
        "ic"
      ],
      [
        "Ġp",
        "re"
      ],
      [
        "Æ°á»Ľ",
        "ng"
      ],
      [
        "Ġs",
        "inh"
      ],
      [
        "as",
        "s"
      ],
      [
        "f",
        "ter"
      ],
      [
        "le",
        "ct"
      ],
      [
        "Ġn",
        "Ãªn"
      ],
      [
        "Ġl",
        "Æ°á»£ng"
      ],
      [
        "i",
        "ed"
      ],
      [
        "Ġas",
        "s"
      ],
      [
        "Ġof",
        "f"
      ],
      [
        "Ġl",
        "áºŃp"
      ],
      [
        "e",
        "ll"
      ],
      [
        "Ã¡",
        "y"
      ],
      [
        "Ġn",
        "á»¯"
      ],
      [
        "u",
        "c"
      ],
      [
        "Ġvá»",
        "ĭ"
      ],
      [
        "Ġsa",
        "id"
      ],
      [
        "Ġ",
        "6"
      ],
      [
        "Ġim",
        "p"
      ],
      [
        "ĠÄĳ",
        "iá»ĥm"
      ],
      [
        "ou",
        "gh"
      ],
      [
        "Ġlu",
        "áºŃt"
      ],
      [
        "Ġn",
        "áº¿u"
      ],
      [
        "Ġcom",
        "m"
      ],
      [
        "Ġint",
        "o"
      ],
      [
        "Ġh",
        "as"
      ],
      [
        "T",
        "Ã´i"
      ],
      [
        "Ġb",
        "ao"
      ],
      [
        "Ġchá»",
        "§"
      ],
      [
        "Ġph",
        "Æ°Æ¡ng"
      ],
      [
        "Ãª",
        "m"
      ],
      [
        "Ġto",
        "Ãłn"
      ],
      [
        "a",
        "v"
      ],
      [
        "Ġr",
        "áº¥t"
      ],
      [
        "Ġgiá»",
        "Ŀ"
      ],
      [
        "Ġngo",
        "Ãłi"
      ],
      [
        "Ġin",
        "d"
      ],
      [
        "ĠN",
        "g"
      ],
      [
        "Ġ\"",
        "."
      ],
      [
        "ro",
        "ng"
      ],
      [
        "Ã©",
        "p"
      ],
      [
        "u",
        "al"
      ],
      [
        "r",
        "is"
      ],
      [
        "Ġthá»",
        "©"
      ],
      [
        "ĠnÄĥ",
        "ng"
      ],
      [
        "Ġ",
        "Ã½"
      ],
      [
        "Ġt",
        "ÃŃnh"
      ],
      [
        "d",
        "uct"
      ],
      [
        "Ġn",
        "o"
      ],
      [
        "á»ĳ",
        "n"
      ],
      [
        "ĠÄĳá»ķ",
        "i"
      ],
      [
        "r",
        "uct"
      ],
      [
        "Ġ",
        "ro"
      ],
      [
        "Ġth",
        "Æ°á»Ŀng"
      ],
      [
        "Ġc",
        "áº§u"
      ],
      [
        "Ġlá»",
        "Ľ"
      ],
      [
        "Ġph",
        "Ã²ng"
      ],
      [
        "Ġa",
        "m"
      ],
      [
        "h",
        "i"
      ],
      [
        "Ġbe",
        "en"
      ],
      [
        "Ĺ",
        "i"
      ],
      [
        "Æ°",
        "ng"
      ],
      [
        "Ġgiá»",
        "¯"
      ],
      [
        "áº¡",
        "ng"
      ],
      [
        "Ġt",
        "áº¡o"
      ],
      [
        "Ġ2",
        "00"
      ],
      [
        "ĩ",
        "nh"
      ],
      [
        "Ġdá»",
        "±ng"
      ],
      [
        "Ġr",
        "á»ĵi"
      ],
      [
        "ĠÄĳ",
        "o"
      ],
      [
        "Ġh",
        "áº¡n"
      ],
      [
        "Ġth",
        "an"
      ],
      [
        "or",
        "s"
      ],
      [
        "ri",
        "b"
      ],
      [
        "on",
        "d"
      ],
      [
        "Ġg",
        "et"
      ],
      [
        "Ġt",
        "y"
      ],
      [
        "er",
        "t"
      ],
      [
        "Ġ",
        "en"
      ],
      [
        "iá»",
        "ħ"
      ],
      [
        "Ġsa",
        "o"
      ],
      [
        "ad",
        "e"
      ],
      [
        "«",
        "ng"
      ],
      [
        "re",
        "d"
      ],
      [
        "Ġor",
        "ganiz"
      ],
      [
        "Ġs",
        "ome"
      ],
      [
        "Ġo",
        "ver"
      ],
      [
        "Ġtr",
        "á»Ł"
      ],
      [
        "ÄĲ",
        "iá»ģu"
      ],
      [
        "Ġtrá»",
        "ĭ"
      ],
      [
        ")",
        "."
      ],
      [
        "Ġqu",
        "Ã¡"
      ],
      [
        "Ġj",
        "ust"
      ],
      [
        "Ġm",
        "ay"
      ],
      [
        "Ġsp",
        "ec"
      ],
      [
        "á»ĳ",
        "t"
      ],
      [
        "'",
        "re"
      ],
      [
        "Ġgi",
        "an"
      ],
      [
        "ra",
        "ct"
      ],
      [
        "áº",
        "³"
      ],
      [
        "Ì",
        "Ģ"
      ],
      [
        "re",
        "at"
      ],
      [
        "Ġch",
        "uyá»ĥn"
      ],
      [
        "Ġin",
        "s"
      ],
      [
        "į",
        "n"
      ],
      [
        "Ġmá»",
        "Ľi"
      ],
      [
        "Ġkho",
        "áº£n"
      ],
      [
        "Ġm",
        "áº·t"
      ],
      [
        "N",
        "h"
      ],
      [
        "Ġh",
        "ay"
      ],
      [
        "Ġv",
        "áºŃy"
      ],
      [
        "ĠN",
        "o"
      ],
      [
        "Ġthá»",
        "©c"
      ],
      [
        "Ġgi",
        "áº£i"
      ],
      [
        "p",
        "ect"
      ],
      [
        "Ġc",
        "uá»Ļc"
      ],
      [
        "ing",
        "s"
      ],
      [
        "Ġk",
        "Ã½"
      ],
      [
        "Ġqu",
        "á»ĳc"
      ],
      [
        "c",
        "ial"
      ],
      [
        "Ġthu",
        "á»Ļc"
      ],
      [
        "ĠG",
        "i"
      ],
      [
        "Ġtr",
        "iá»ĥn"
      ],
      [
        "á»",
        "ĭ"
      ],
      [
        "Ġ1",
        "0"
      ],
      [
        "Ġh",
        "Ã³a"
      ],
      [
        "Ġt",
        "u"
      ],
      [
        "Ġt",
        "Ã¡c"
      ],
      [
        "áº©",
        "n"
      ],
      [
        "á»ķ",
        "i"
      ],
      [
        "Ġv",
        "áºŃt"
      ],
      [
        "Ġkh",
        "u"
      ],
      [
        "Ġtá»",
        "Ľi"
      ],
      [
        "Ġm",
        "ust"
      ],
      [
        "Ġth",
        "á»ĳng"
      ],
      [
        "Ġ",
        "7"
      ],
      [
        "Ġp",
        "eople"
      ],
      [
        "Ġg",
        "á»"
      ],
      [
        "Ġy",
        "ear"
      ],
      [
        "Ġbe",
        "c"
      ],
      [
        "Ġin",
        "ter"
      ],
      [
        "Ġl",
        "iá»ĩu"
      ],
      [
        "w",
        "n"
      ],
      [
        "á»Ł",
        "i"
      ],
      [
        "Ã",
        "¨"
      ],
      [
        "ĠÄĳ",
        "Æ¡n"
      ],
      [
        "Ġ",
        "0"
      ],
      [
        "Ġto",
        "Ã¡n"
      ],
      [
        "a",
        "k"
      ],
      [
        "-",
        "-"
      ],
      [
        "áº¡",
        "nh"
      ],
      [
        "Ġgi",
        "ao"
      ],
      [
        "Ġs",
        "c"
      ],
      [
        "Ġb",
        "u"
      ],
      [
        "Ġch",
        "áº¥t"
      ],
      [
        "Ã¬",
        "m"
      ],
      [
        "Ġch",
        "i"
      ],
      [
        "it",
        "e"
      ],
      [
        "ver",
        "y"
      ],
      [
        "Ġb",
        "áº¯t"
      ],
      [
        "Ġlá»",
        "±c"
      ],
      [
        "er",
        "m"
      ],
      [
        "is",
        "ion"
      ],
      [
        "Ġch",
        "uyá»ĩn"
      ],
      [
        "ĠÄĳ",
        "áº¥t"
      ],
      [
        "Ġqu",
        "áº£"
      ],
      [
        "Ġinv",
        "est"
      ],
      [
        "I",
        "n"
      ],
      [
        "Ġr",
        "ight"
      ],
      [
        "Ġhá»",
        "ĩ"
      ],
      [
        "ĠÄĳá»ĭ",
        "a"
      ],
      [
        "Ġcáº£",
        "m"
      ],
      [
        "le",
        "ment"
      ],
      [
        "ĠN",
        "am"
      ],
      [
        "Ġs",
        "Ã¡ch"
      ],
      [
        "a",
        "il"
      ],
      [
        "Ġth",
        "iáº¿t"
      ],
      [
        "ent",
        "s"
      ],
      [
        "Ġph",
        "áº¡m"
      ],
      [
        "o",
        "int"
      ],
      [
        "Ã¬",
        "n"
      ],
      [
        "il",
        "d"
      ],
      [
        "Ġch",
        "áº¿"
      ],
      [
        "Ġp",
        "r"
      ],
      [
        "Ġre",
        "c"
      ],
      [
        "ow",
        "n"
      ],
      [
        "2",
        "00"
      ],
      [
        "w",
        "e"
      ],
      [
        "ĠÄĳ",
        "áº¡i"
      ],
      [
        "Ġcon",
        "s"
      ],
      [
        "Ġtr",
        "ans"
      ],
      [
        "Ġb",
        "Ãªn"
      ],
      [
        "Ã£",
        "y"
      ],
      [
        "Ġlo",
        "áº¡i"
      ],
      [
        "2",
        "01"
      ],
      [
        "Ġc",
        "ould"
      ],
      [
        "Ġc",
        "ao"
      ],
      [
        "Ġk",
        "áº¿"
      ],
      [
        "Ġw",
        "ant"
      ],
      [
        "om",
        "m"
      ],
      [
        "Ġsu",
        "b"
      ],
      [
        "Ġthá»",
        "§"
      ],
      [
        "Ġx",
        "Ã¢y"
      ],
      [
        "Ãº",
        "t"
      ],
      [
        "Ġy",
        "Ãªu"
      ],
      [
        "Ġ",
        "i"
      ],
      [
        "Ġt",
        "iÃªu"
      ],
      [
        "Ġgo",
        "od"
      ],
      [
        "ĠÄĳ",
        "Æ°á»Ŀng"
      ],
      [
        "se",
        "l"
      ],
      [
        "Ġ",
        "use"
      ],
      [
        "Ġt",
        "w"
      ],
      [
        "Ġh",
        "iá»ĩu"
      ],
      [
        "Ġgiá»",
        "Ľi"
      ],
      [
        "Æ°",
        "u"
      ],
      [
        "n",
        "ing"
      ],
      [
        "or",
        "y"
      ],
      [
        "Ġph",
        "á»§"
      ],
      [
        "in",
        "k"
      ],
      [
        "ar",
        "k"
      ],
      [
        "l",
        "es"
      ],
      [
        "n",
        "am"
      ],
      [
        "Ġd",
        "on"
      ],
      [
        "áº³",
        "ng"
      ],
      [
        "Ġthu",
        "áº¿"
      ],
      [
        "Ġv",
        "Äĥn"
      ],
      [
        "ou",
        "nd"
      ],
      [
        "at",
        "ing"
      ],
      [
        "s",
        "s"
      ],
      [
        "Ġx",
        "Ã¡c"
      ],
      [
        "ĠA",
        "rticle"
      ],
      [
        "ĠÄĳ",
        "iá»ĩn"
      ],
      [
        "Ġch",
        "iáº¿"
      ],
      [
        "Ġ)",
        ","
      ],
      [
        "ll",
        "ow"
      ],
      [
        "ul",
        "ar"
      ],
      [
        "Ġlá»Ľ",
        "n"
      ],
      [
        "t",
        "e"
      ],
      [
        "h",
        "ing"
      ],
      [
        "u",
        "res"
      ],
      [
        "ir",
        "st"
      ],
      [
        "Ġs",
        "erv"
      ],
      [
        "Ġnh",
        "áºŃp"
      ],
      [
        "Ġtr",
        "ung"
      ],
      [
        "Ġwor",
        "k"
      ],
      [
        "c",
        "es"
      ],
      [
        "f",
        "ore"
      ],
      [
        "i",
        "an"
      ],
      [
        "Ġa",
        "fter"
      ],
      [
        "Ġph",
        "Ã©p"
      ],
      [
        "Ġ",
        "Ã"
      ],
      [
        "Ġd",
        "id"
      ],
      [
        "o",
        "y"
      ],
      [
        "Ġph",
        "áº©m"
      ],
      [
        "Ġmá»",
        "įi"
      ],
      [
        "Ã©",
        "t"
      ],
      [
        "ĠT",
        "Ã´i"
      ],
      [
        "Ġt",
        "ay"
      ],
      [
        "Ġt",
        "Ã¬m"
      ],
      [
        "Ġt",
        "áºŃp"
      ],
      [
        "N",
        "D"
      ],
      [
        "A",
        "rticle"
      ],
      [
        "s",
        "u"
      ],
      [
        "i",
        "le"
      ],
      [
        "Ġl",
        "aw"
      ],
      [
        "ol",
        "d"
      ],
      [
        "Äĥ",
        "m"
      ],
      [
        "Ġma",
        "ke"
      ],
      [
        "Ġf",
        "ore"
      ],
      [
        "Ġ",
        "8"
      ],
      [
        "s",
        "o"
      ],
      [
        "N",
        "G"
      ],
      [
        "Ġc",
        "Ã¡"
      ],
      [
        "at",
        "es"
      ],
      [
        "Ġb",
        "et"
      ],
      [
        "it",
        "ion"
      ],
      [
        "age",
        "ment"
      ],
      [
        "Ġacc",
        "ord"
      ],
      [
        "Ġnh",
        "iÃªn"
      ],
      [
        "Ġl",
        "áº§n"
      ],
      [
        "Ġre",
        "qu"
      ],
      [
        "ı",
        "i"
      ],
      [
        "Ġm",
        "Ã¡y"
      ],
      [
        "Ġthá»",
        "ĭ"
      ],
      [
        "Y",
        "ou"
      ],
      [
        "A",
        "nd"
      ],
      [
        "Ġc",
        "Ã¡o"
      ],
      [
        "o",
        "b"
      ],
      [
        "ĠV",
        "iá»ĩt"
      ],
      [
        "á»Ļ",
        "ng"
      ],
      [
        "Ġnh",
        "Ã¬n"
      ],
      [
        "Ġag",
        "enc"
      ],
      [
        "Ġthe",
        "n"
      ],
      [
        "Ġth",
        "ay"
      ],
      [
        "iet",
        "nam"
      ],
      [
        "Ġ",
        "X"
      ],
      [
        "Ġsá»ĳ",
        "ng"
      ],
      [
        "ĠC",
        "l"
      ],
      [
        "Ġpro",
        "c"
      ],
      [
        "Ġho",
        "áº¡ch"
      ],
      [
        "at",
        "ive"
      ],
      [
        "áº¡",
        "c"
      ],
      [
        "o",
        "ver"
      ],
      [
        "Ġch",
        "u"
      ],
      [
        "ĠM",
        "inist"
      ],
      [
        "áº¯",
        "ng"
      ],
      [
        "vel",
        "op"
      ],
      [
        "áº©",
        "u"
      ],
      [
        "£",
        "i"
      ],
      [
        "Ì",
        "£"
      ],
      [
        "iá»ħ",
        "n"
      ],
      [
        "Ãº",
        "p"
      ],
      [
        "g",
        "et"
      ],
      [
        "Ġsu",
        "pp"
      ],
      [
        "Ġp",
        "ers"
      ],
      [
        "Ġn",
        "Æ¡i"
      ],
      [
        "Ġb",
        "r"
      ],
      [
        "Ġh",
        "ere"
      ],
      [
        "ĠV",
        "ietnam"
      ],
      [
        "ĠH",
        "e"
      ],
      [
        "Å",
        "©"
      ],
      [
        "u",
        "nd"
      ],
      [
        "Ġit",
        "s"
      ],
      [
        "I",
        "t"
      ],
      [
        "âĢ¦",
        "âĢ¦"
      ],
      [
        "Ã¡",
        "m"
      ],
      [
        "o",
        "v"
      ],
      [
        "Ġs",
        "ec"
      ],
      [
        "Ġd",
        "áº«n"
      ],
      [
        "Ġfor",
        "m"
      ],
      [
        "Ġc",
        "ap"
      ],
      [
        "ire",
        "ct"
      ],
      [
        "n",
        "e"
      ],
      [
        "Ġt",
        "Ãªn"
      ],
      [
        "Ġth",
        "áº©m"
      ],
      [
        "Ġcá»",
        "ĳ"
      ],
      [
        "Ġfo",
        "llow"
      ],
      [
        "Ġre",
        "l"
      ],
      [
        "Ġná»¯",
        "a"
      ],
      [
        "l",
        "ud"
      ],
      [
        "Ġ",
        "9"
      ],
      [
        "Ġne",
        "w"
      ],
      [
        "Ġcá»",
        "Ń"
      ],
      [
        "Ġt",
        "Ã¢m"
      ],
      [
        "ut",
        "h"
      ],
      [
        "Ġt",
        "Ã¬nh"
      ],
      [
        "Ġs",
        "Æ¡"
      ],
      [
        "Ġf",
        "irst"
      ],
      [
        "Ġon",
        "ly"
      ],
      [
        "Ġse",
        "e"
      ],
      [
        "is",
        "s"
      ],
      [
        "Ġkh",
        "áº©u"
      ],
      [
        "it",
        "s"
      ],
      [
        "res",
        "s"
      ],
      [
        "Ġkh",
        "ai"
      ],
      [
        "r",
        "u"
      ],
      [
        "Ġs",
        "y"
      ],
      [
        "Ġv",
        "áº«n"
      ],
      [
        "Ġb",
        "ack"
      ],
      [
        "áº£",
        "nh"
      ],
      [
        "st",
        "ruct"
      ],
      [
        "Ġs",
        "Ã¡t"
      ],
      [
        "Ġá»",
        "©ng"
      ],
      [
        "Ġb",
        "l"
      ],
      [
        "Ã",
        "µ"
      ],
      [
        "uyá»",
        "ģn"
      ],
      [
        "is",
        "ter"
      ],
      [
        "f",
        "t"
      ],
      [
        "Ġlo",
        "ok"
      ],
      [
        "Ġa",
        "r"
      ],
      [
        "Ġtá»",
        "¥c"
      ],
      [
        "Ġo",
        "ur"
      ],
      [
        "Ġb",
        "áº¥t"
      ],
      [
        "Ġ2",
        "0"
      ],
      [
        "Ġtr",
        "Ã¡ch"
      ],
      [
        "Ġd",
        "Æ°á»"
      ],
      [
        "Ġch",
        "Æ°a"
      ],
      [
        "rou",
        "gh"
      ],
      [
        "Ġc",
        "áºŃu"
      ],
      [
        "Ġtrá»",
        "įng"
      ],
      [
        "Ġng",
        "á»"
      ],
      [
        "o",
        "od"
      ],
      [
        "Ġpro",
        "duct"
      ],
      [
        "e",
        "e"
      ],
      [
        "áº£",
        "y"
      ],
      [
        "Ġgi",
        "Ãºp"
      ],
      [
        "ic",
        "es"
      ],
      [
        "Ġho",
        "Ãłn"
      ],
      [
        "Ġwh",
        "ere"
      ],
      [
        "it",
        "al"
      ],
      [
        "ĠMinist",
        "ry"
      ],
      [
        "Ġv",
        "áº¥n"
      ],
      [
        "Ġsu",
        "ch"
      ],
      [
        "Ġh",
        "and"
      ],
      [
        "er",
        "y"
      ],
      [
        "ĠÄĳá»",
        "§"
      ],
      [
        "Ġre",
        "m"
      ],
      [
        "áº§",
        "m"
      ],
      [
        "ĠD",
        "ec"
      ],
      [
        "Ġtw",
        "o"
      ],
      [
        "Ġx",
        "em"
      ],
      [
        "Ġbá»",
        "ĩnh"
      ],
      [
        "ol",
        "og"
      ],
      [
        "á»ĵ",
        "m"
      ],
      [
        "Ġnh",
        "au"
      ],
      [
        "ch",
        "n"
      ],
      [
        "Ġh",
        "Æ°á»Ľng"
      ],
      [
        "Ġne",
        "ed"
      ],
      [
        "ĠW",
        "h"
      ],
      [
        "Ġb",
        "á»Łi"
      ],
      [
        "Ġtr",
        "Æ°á»Łng"
      ],
      [
        "Ġt",
        "áº¥t"
      ],
      [
        "p",
        "ris"
      ],
      [
        "u",
        "ll"
      ],
      [
        "Ġman",
        "agement"
      ],
      [
        "Ġe",
        "very"
      ],
      [
        "Ġg",
        "r"
      ],
      [
        "ic",
        "k"
      ],
      [
        "p",
        "h"
      ],
      [
        "Ġph",
        "Ã¢n"
      ],
      [
        "Ġx",
        "á»Ń"
      ],
      [
        "form",
        "ation"
      ],
      [
        "Ġo",
        "b"
      ],
      [
        "Ġc",
        "ar"
      ],
      [
        "Ġk",
        "iá»ĩn"
      ],
      [
        "Ġal",
        "so"
      ],
      [
        "Ġkh",
        "á»ı"
      ],
      [
        "Ġg",
        "á»ĵm"
      ],
      [
        "Ġchá»",
        "ĭ"
      ],
      [
        "ĠCh",
        "ÃŃnh"
      ],
      [
        "l",
        "ish"
      ],
      [
        "Ġf",
        "l"
      ],
      [
        "Ġcá»©",
        "u"
      ],
      [
        "Ġv",
        "á»ĳn"
      ],
      [
        "Ã³",
        "c"
      ],
      [
        "Ġbe",
        "fore"
      ],
      [
        "ur",
        "n"
      ],
      [
        "Ġtiáº¿",
        "ng"
      ],
      [
        "Ġ1",
        "5"
      ],
      [
        "rou",
        "nd"
      ],
      [
        "Ġth",
        "i"
      ],
      [
        "ir",
        "c"
      ],
      [
        "á»ĵ",
        "n"
      ],
      [
        "á»",
        "¹"
      ],
      [
        "i",
        "ous"
      ],
      [
        "Ã³",
        "ng"
      ],
      [
        "Ġth",
        "ÃŃch"
      ],
      [
        "Ġvá»",
        "±c"
      ],
      [
        "Ġmá»",
        "©c"
      ],
      [
        "Ġ",
        "est"
      ],
      [
        "uy",
        "áº¿t"
      ],
      [
        "....",
        "...."
      ],
      [
        "Ġlá»",
        "ĩ"
      ],
      [
        "Ġt",
        "iÃªn"
      ],
      [
        "Ġhá»",
        "ıi"
      ],
      [
        "Ġag",
        "ain"
      ],
      [
        "ī",
        "nh"
      ],
      [
        "'",
        "m"
      ],
      [
        "Ġb",
        "á»ĳ"
      ],
      [
        "Ġtá»«",
        "ng"
      ],
      [
        "Ġthe",
        "se"
      ],
      [
        "c",
        "rib"
      ],
      [
        "Ġn",
        "á»Ļi"
      ],
      [
        "W",
        "h"
      ],
      [
        "áº§",
        "y"
      ],
      [
        "Ġt",
        "á»ĳt"
      ],
      [
        "Ġká»",
        "³"
      ],
      [
        "Ġpl",
        "an"
      ],
      [
        "Ġth",
        "anh"
      ],
      [
        "Ġho",
        "w"
      ],
      [
        "Ġde",
        "velop"
      ],
      [
        "ĠnghÄ©",
        "a"
      ],
      [
        "Ġent",
        "er"
      ],
      [
        "Ġf",
        "in"
      ],
      [
        "Ġmá»",
        "¥c"
      ],
      [
        "ĠT",
        "o"
      ],
      [
        "ĠN",
        "gh"
      ],
      [
        "e",
        "w"
      ],
      [
        "Ġgá»",
        "įi"
      ],
      [
        "n",
        "ment"
      ],
      [
        "Ġtrá»",
        "£"
      ],
      [
        "Ġd",
        "Ã¹ng"
      ],
      [
        "T",
        "r"
      ],
      [
        "Ġb",
        "Ã¡n"
      ],
      [
        "Ġd",
        "es"
      ],
      [
        "if",
        "e"
      ],
      [
        "Ġl",
        "Ã£"
      ],
      [
        "Ġs",
        "m"
      ],
      [
        "om",
        "et"
      ],
      [
        "Ġg",
        "u"
      ],
      [
        "Ġpro",
        "ject"
      ],
      [
        "Ġreg",
        "ul"
      ],
      [
        "Ġr",
        "á»"
      ],
      [
        "Ġnh",
        "á»"
      ],
      [
        "in",
        "ess"
      ],
      [
        "Ġx",
        "Ã£"
      ],
      [
        "Ġká»",
        "ĥ"
      ],
      [
        "Ġb",
        "o"
      ],
      [
        "ĠÄ",
        "ĥn"
      ],
      [
        "Ġ1",
        "2"
      ],
      [
        "il",
        "ity"
      ],
      [
        "Ġthu",
        "áºŃt"
      ],
      [
        "Ġl",
        "and"
      ],
      [
        "ĠÄĳ",
        "Ã¡nh"
      ],
      [
        "Ġth",
        "Æ°Æ¡ng"
      ],
      [
        "Ġc",
        "ert"
      ],
      [
        "i",
        "ly"
      ],
      [
        "ĠÄĳ",
        "Æ°a"
      ],
      [
        "a",
        "ir"
      ],
      [
        "Ġb",
        "Ãł"
      ],
      [
        "Ġlo",
        "c"
      ],
      [
        "Ġo",
        "wn"
      ],
      [
        "ĠC",
        "omm"
      ],
      [
        "iáº¿",
        "u"
      ],
      [
        "ĠSt",
        "ate"
      ],
      [
        "Ġst",
        "ate"
      ],
      [
        "I",
        "f"
      ],
      [
        "Ġth",
        "am"
      ],
      [
        "Ġbá»",
        "ı"
      ],
      [
        "Ġth",
        "áºŃt"
      ],
      [
        "Ġw",
        "ay"
      ],
      [
        "«",
        "a"
      ],
      [
        "is",
        "e"
      ],
      [
        "Ġng",
        "uyÃªn"
      ],
      [
        "ut",
        "ion"
      ],
      [
        "Ġn",
        "ow"
      ],
      [
        "áº·",
        "p"
      ],
      [
        "uá»ĳ",
        "i"
      ],
      [
        "Ġtr",
        "áº£"
      ],
      [
        "Ġo",
        "per"
      ],
      [
        "Ġs",
        "et"
      ],
      [
        "N",
        "áº¿u"
      ],
      [
        "g",
        "r"
      ],
      [
        "ub",
        "lic"
      ],
      [
        "Ġin",
        "st"
      ],
      [
        "en",
        "er"
      ],
      [
        "ur",
        "ing"
      ],
      [
        "ĠÄĳ",
        "áº£m"
      ],
      [
        "uá»ĳ",
        "ng"
      ],
      [
        "áº",
        "±"
      ],
      [
        "C",
        "P"
      ],
      [
        "p",
        "e"
      ],
      [
        "Ġch",
        "iáº¿n"
      ],
      [
        "Ġl",
        "Ãºc"
      ],
      [
        "Ġat",
        "t"
      ],
      [
        "Ġh",
        "áº¿t"
      ],
      [
        "t",
        "y"
      ],
      [
        "r",
        "it"
      ],
      [
        "Ġnghá»",
        "ĭ"
      ],
      [
        "Ġinc",
        "lud"
      ],
      [
        "Ġp",
        "ay"
      ],
      [
        "ot",
        "her"
      ],
      [
        "Ġm",
        "in"
      ],
      [
        "Ġta",
        "x"
      ],
      [
        "Ġb",
        "iá»ĩt"
      ],
      [
        "Ġim",
        "port"
      ],
      [
        "Ġth",
        "ink"
      ],
      [
        "Ġcá»",
        "ķ"
      ],
      [
        "Ġd",
        "own"
      ],
      [
        "ĠÄĳ",
        "Ãºng"
      ],
      [
        "at",
        "h"
      ],
      [
        "Ġlá»",
        "Ŀi"
      ],
      [
        "Ġn",
        "á»"
      ],
      [
        "st",
        "em"
      ],
      [
        "Ġa",
        "i"
      ],
      [
        "Ġth",
        "o"
      ],
      [
        "Ġvá»",
        "ĩ"
      ],
      [
        "ÃŃ",
        "t"
      ],
      [
        "Ġta",
        "ke"
      ],
      [
        "H",
        "e"
      ],
      [
        "Ġx",
        "e"
      ],
      [
        "ĠT",
        "á»ķ"
      ],
      [
        "i",
        "x"
      ],
      [
        "ĠI",
        "t"
      ],
      [
        "uth",
        "or"
      ],
      [
        "Th",
        "is"
      ],
      [
        "Ġphá»",
        "¥c"
      ],
      [
        "w",
        "ard"
      ],
      [
        "Ġgiá»¯",
        "a"
      ],
      [
        "es",
        "e"
      ],
      [
        "Ġin",
        "formation"
      ],
      [
        "ib",
        "le"
      ],
      [
        "sel",
        "f"
      ],
      [
        "ro",
        "w"
      ],
      [
        "Ġm",
        "on"
      ],
      [
        "Ġ1",
        "8"
      ],
      [
        "if",
        "ied"
      ],
      [
        "Ġth",
        "rough"
      ],
      [
        "Ġc",
        "ol"
      ],
      [
        "Ã¡",
        "u"
      ],
      [
        "us",
        "iness"
      ],
      [
        "ĠÄĳ",
        "Äĥng"
      ],
      [
        "re",
        "n"
      ],
      [
        "ĠNh",
        "Ãł"
      ],
      [
        "crib",
        "ed"
      ],
      [
        "ow",
        "er"
      ],
      [
        "Ġd",
        "if"
      ],
      [
        "a",
        "h"
      ],
      [
        "id",
        "ent"
      ],
      [
        "ur",
        "al"
      ],
      [
        "Ġt",
        "iáº¿n"
      ],
      [
        "Ġs",
        "ay"
      ],
      [
        "V",
        "Ãł"
      ],
      [
        "ĠÄĳá»ģ",
        "u"
      ],
      [
        "N",
        "g"
      ],
      [
        "am",
        "p"
      ],
      [
        "Ġhe",
        "l"
      ],
      [
        "Ġsh",
        "ould"
      ],
      [
        "w",
        "ay"
      ],
      [
        "Ġd",
        "ung"
      ],
      [
        "Ġph",
        "á»ĳ"
      ],
      [
        "Ġe",
        "ven"
      ],
      [
        "Ġn",
        "um"
      ],
      [
        "1",
        "9"
      ],
      [
        "Ġapp",
        "ro"
      ],
      [
        "Ġtr",
        "ÃŃ"
      ],
      [
        "áº¥",
        "m"
      ],
      [
        "d",
        "er"
      ],
      [
        "Ġgo",
        "ing"
      ],
      [
        "Ġagenc",
        "ies"
      ],
      [
        "Ġp",
        "ol"
      ],
      [
        "Ġchiáº¿",
        "c"
      ],
      [
        "Ġl",
        "ong"
      ],
      [
        "ou",
        "n"
      ],
      [
        "Ġimp",
        "lement"
      ],
      [
        "áº±",
        "m"
      ],
      [
        "Ġd",
        "et"
      ],
      [
        "Ġmu",
        "a"
      ],
      [
        "b",
        "le"
      ],
      [
        "t",
        "s"
      ],
      [
        "ĠA",
        "nh"
      ],
      [
        "ÃŃ",
        "n"
      ],
      [
        "Ġex",
        "p"
      ],
      [
        "Ġte",
        "chn"
      ],
      [
        "l",
        "ed"
      ],
      [
        "ĠNgh",
        "á»ĭ"
      ],
      [
        "ĠÄĳ",
        "áº·c"
      ],
      [
        "Ġre",
        "port"
      ],
      [
        "'",
        "ll"
      ],
      [
        "Ġk",
        "iáº¿n"
      ],
      [
        "ĠR",
        "e"
      ],
      [
        "áº¯",
        "m"
      ],
      [
        "Ġ",
        "áº£nh"
      ],
      [
        "ain",
        "ing"
      ],
      [
        "an",
        "k"
      ],
      [
        "Ġbec",
        "ause"
      ],
      [
        "Ġd",
        "iá»ĩn"
      ],
      [
        "ĠTh",
        "Ã´ng"
      ],
      [
        "i",
        "ent"
      ],
      [
        "Ġnghá»",
        "ĩ"
      ],
      [
        "Ġng",
        "u"
      ],
      [
        "iv",
        "id"
      ],
      [
        "uyá»ĩ",
        "t"
      ],
      [
        "ang",
        "e"
      ],
      [
        "Ġpers",
        "on"
      ],
      [
        "Ġc",
        "ent"
      ],
      [
        "Ġyear",
        "s"
      ],
      [
        "Ġgi",
        "Ã¡o"
      ],
      [
        "ĠÄĳ",
        "áº·t"
      ],
      [
        "Ãł",
        "u"
      ],
      [
        "Ġhe",
        "ad"
      ],
      [
        "u",
        "p"
      ],
      [
        "Ġtá»",
        "īnh"
      ],
      [
        "Ġv",
        "al"
      ],
      [
        "Ġhel",
        "p"
      ],
      [
        "Ġt",
        "Äĥng"
      ],
      [
        "Ġa",
        "uthor"
      ],
      [
        "á»Ļ",
        "p"
      ],
      [
        "Ġchá»",
        "įn"
      ],
      [
        "inist",
        "r"
      ],
      [
        "i",
        "o"
      ],
      [
        "Ġtrá»",
        "±c"
      ],
      [
        "Ġgi",
        "áº¥y"
      ],
      [
        "Ġc",
        "Ã¢u"
      ],
      [
        "Ġenter",
        "pris"
      ],
      [
        "t",
        "ing"
      ],
      [
        "Ġth",
        "ough"
      ],
      [
        "Ġng",
        "ay"
      ],
      [
        "ect",
        "ion"
      ],
      [
        "Ġaccord",
        "ing"
      ],
      [
        "Ġch",
        "ar"
      ],
      [
        "Ġre",
        "p"
      ],
      [
        "Ġc",
        "ung"
      ],
      [
        "struct",
        "ion"
      ],
      [
        "l",
        "and"
      ],
      [
        "Ġm",
        "ade"
      ],
      [
        "Ġsy",
        "stem"
      ],
      [
        "as",
        "ed"
      ],
      [
        "áº«",
        "u"
      ],
      [
        "ĳ",
        "ng"
      ],
      [
        "Ġc",
        "all"
      ],
      [
        "we",
        "en"
      ],
      [
        "Ġb",
        "iáº¿n"
      ],
      [
        "ĠdÆ°á»",
        "Ľi"
      ],
      [
        "Ġt",
        "Æ°Æ¡ng"
      ],
      [
        "Ġt",
        "Æ°á»£ng"
      ],
      [
        "Ġd",
        "irect"
      ],
      [
        "an",
        "y"
      ],
      [
        "Ġre",
        "ce"
      ],
      [
        "at",
        "her"
      ],
      [
        "Ġad",
        "d"
      ],
      [
        "Ì",
        "ī"
      ],
      [
        "v",
        "ing"
      ],
      [
        "k",
        "ed"
      ],
      [
        "Ġe",
        "ach"
      ],
      [
        "Ġorganiz",
        "ations"
      ],
      [
        "Ġ",
        "Ã¡p"
      ],
      [
        "Ġng",
        "Ã¢n"
      ],
      [
        "iz",
        "ed"
      ],
      [
        "Ġs",
        "omet"
      ],
      [
        "Ġl",
        "ao"
      ],
      [
        "Ġb",
        "a"
      ],
      [
        "į",
        "c"
      ],
      [
        "Ġs",
        "Ã¡ng"
      ],
      [
        "Ġres",
        "p"
      ],
      [
        "Ġe",
        "ff"
      ],
      [
        "ĠÄĲ",
        "á»"
      ],
      [
        "Ġth",
        "Ã¢n"
      ],
      [
        "Ġnh",
        "á»ı"
      ],
      [
        "ĠT",
        "H"
      ],
      [
        "Ġx",
        "uá»ĳng"
      ],
      [
        "Ġ3",
        "0"
      ],
      [
        "Ġl",
        "áº¥y"
      ],
      [
        "is",
        "ions"
      ],
      [
        "i",
        "Ãª"
      ],
      [
        "ĠÄĳ",
        "Ã¢u"
      ],
      [
        "Ġ\"",
        ","
      ],
      [
        "r",
        "on"
      ],
      [
        "al",
        "s"
      ],
      [
        "Ġde",
        "p"
      ],
      [
        "Ġcá»Ń",
        "a"
      ],
      [
        "Ġkhá»ı",
        "i"
      ],
      [
        "Ã³",
        "m"
      ],
      [
        "v",
        "ed"
      ],
      [
        "Ġinvest",
        "ment"
      ],
      [
        "i",
        "er"
      ],
      [
        "Ġ1",
        "1"
      ],
      [
        "Ġact",
        "iv"
      ],
      [
        "u",
        "ally"
      ],
      [
        "Ġbe",
        "ing"
      ],
      [
        "Ġv",
        "áºŃn"
      ],
      [
        "Ġd",
        "ay"
      ],
      [
        "Ġb",
        "Ã¬nh"
      ],
      [
        "ĠQ",
        "u"
      ],
      [
        "ĠY",
        "ou"
      ],
      [
        "ĠCl",
        "ause"
      ],
      [
        "Ġs",
        "Ä©"
      ],
      [
        "Ġng",
        "he"
      ],
      [
        "Ġe",
        "v"
      ],
      [
        "Ġb",
        "usiness"
      ],
      [
        "©",
        "a"
      ],
      [
        "T",
        "I"
      ],
      [
        "áº¯",
        "p"
      ],
      [
        "ot",
        "h"
      ],
      [
        "Ġbet",
        "ween"
      ],
      [
        "ĠL",
        "u"
      ],
      [
        "Ġcomp",
        "et"
      ],
      [
        "ĠphÃŃ",
        "a"
      ],
      [
        "'",
        "ve"
      ],
      [
        "Ġqu",
        "Ã¢n"
      ],
      [
        "Ġe",
        "qu"
      ],
      [
        "Ġpres",
        "cribed"
      ],
      [
        "c",
        "u"
      ],
      [
        "Ġv",
        "ery"
      ],
      [
        "Ġchu",
        "áº©n"
      ],
      [
        "Ġa",
        "c"
      ],
      [
        "ĠC",
        "on"
      ],
      [
        "ĠC",
        "Ã´ng"
      ],
      [
        "Ġprov",
        "in"
      ],
      [
        "Ġh",
        "Ã£y"
      ],
      [
        "Ġch",
        "uyÃªn"
      ],
      [
        "S",
        "o"
      ],
      [
        "Ġh",
        "igh"
      ],
      [
        "Ġwe",
        "ll"
      ],
      [
        "Ġbá»",
        "ķ"
      ],
      [
        "it",
        "ed"
      ],
      [
        "Ġtá»ķ",
        "ng"
      ],
      [
        "Ġfore",
        "ign"
      ],
      [
        "Ġm",
        "ost"
      ],
      [
        "Ġtá»",
        "Ń"
      ],
      [
        "ter",
        "n"
      ],
      [
        "ĠP",
        "ro"
      ],
      [
        "Ġthu",
        "á»ĳc"
      ],
      [
        "Ġw",
        "ater"
      ],
      [
        "Ķ",
        "ng"
      ],
      [
        "Ġgiá»",
        "ĳng"
      ],
      [
        "Ġc",
        "a"
      ],
      [
        "Ġh",
        "iá»ĥu"
      ],
      [
        "Ġt",
        "á»ĳi"
      ],
      [
        "Ġs",
        "ur"
      ],
      [
        "ou",
        "se"
      ],
      [
        "al",
        "th"
      ],
      [
        "ab",
        "lish"
      ],
      [
        "Ġs",
        "ign"
      ],
      [
        "Ġus",
        "ed"
      ],
      [
        "Ġkho",
        "áº£ng"
      ],
      [
        "Ġphá»",
        "¥"
      ],
      [
        "Ġd",
        "ist"
      ],
      [
        "uy",
        "áº¿n"
      ],
      [
        "ĠG",
        "over"
      ],
      [
        "Ä",
        "ĳ"
      ],
      [
        "Ġregul",
        "ations"
      ],
      [
        "f",
        "ul"
      ],
      [
        "Ġtr",
        "anh"
      ],
      [
        "c",
        "on"
      ],
      [
        "Ġc",
        "ount"
      ],
      [
        "al",
        "e"
      ],
      [
        "Ġcont",
        "ract"
      ],
      [
        "Ġm",
        "áº¥t"
      ],
      [
        "O",
        "N"
      ],
      [
        "Ġm",
        "et"
      ],
      [
        "ĠÄĳ",
        "áº¡o"
      ],
      [
        "Ġapp",
        "lic"
      ],
      [
        "ar",
        "ch"
      ],
      [
        "od",
        "y"
      ],
      [
        "Ġs",
        "ame"
      ],
      [
        "á»Ń",
        "i"
      ],
      [
        "T",
        "T"
      ],
      [
        "Ġchá»",
        "¯"
      ],
      [
        "ĠC",
        "Ã¡c"
      ],
      [
        "Ġm",
        "ed"
      ],
      [
        "ĠH",
        "o"
      ],
      [
        "Ġngu",
        "á»ĵn"
      ],
      [
        "Ġcáº£",
        "nh"
      ],
      [
        "ivid",
        "ual"
      ],
      [
        "Ġh",
        "iá»ĥm"
      ],
      [
        "Ġb",
        "ay"
      ],
      [
        "Ġk",
        "e"
      ],
      [
        "ĠD",
        "e"
      ],
      [
        "ĠDec",
        "ree"
      ],
      [
        "iv",
        "es"
      ],
      [
        "Ġtr",
        "uyá»ģn"
      ],
      [
        "Ġg",
        "áº§n"
      ],
      [
        "Ġfe",
        "el"
      ],
      [
        "o",
        "ve"
      ],
      [
        "Ġp",
        "os"
      ],
      [
        "Ġl",
        "ife"
      ],
      [
        "Ġgi",
        "áº£m"
      ],
      [
        "Ġcá»",
        "¥"
      ],
      [
        "Ġtr",
        "ang"
      ],
      [
        "Ġng",
        "Ãłnh"
      ],
      [
        "n",
        "a"
      ],
      [
        "Ġch",
        "áº¿t"
      ],
      [
        "Ġká»",
        "¹"
      ],
      [
        "Ġlá»",
        "£i"
      ],
      [
        "im",
        "es"
      ],
      [
        "Ġchá»ĭ",
        "u"
      ],
      [
        "Ġg",
        "áº·p"
      ],
      [
        "B",
        "áº¡n"
      ],
      [
        "Ġc",
        "uá»ĳi"
      ],
      [
        "Ġmá»",
[...]
